~{{PAD}}~	0
~{{UNK}}~	0
~{{BOS}}~	0
~{{EOS}}~	0
,	-2.69224
▁the	-2.81494
▁and	-3.28991
▁of	-3.40608
.	-3.67819
▁to	-4.33762
:	-4.35784
▁And	-4.39739
▁in	-4.41805
▁that	-4.41853
;	-4.63455
▁he	-4.65626
▁shall	-4.67254
s	-4.71506
▁I	-4.74332
▁unto	-4.7602
▁a	-4.81846
▁his	-4.82222
▁for	-4.94272
▁be	-4.9813
▁they	-5.01562
▁is	-5.02462
▁	-5.04431
▁LORD	-5.05645
▁him	-5.0566
▁not	-5.06652
▁them	-5.09611
▁with	-5.141
▁it	-5.17432
▁all	-5.25452
▁thou	-5.364
▁was	-5.43909
▁thy	-5.45775
▁which	-5.49622
▁me	-5.51059
▁my	-5.52852
▁God	-5.5347
▁said	-5.56083
▁their	-5.59617
▁have	-5.60201
▁will	-5.60253
▁thee	-5.6337
▁ye	-5.63789
▁from	-5.67215
ed	-5.71686
?	-5.75752
▁as	-5.77821
1	-5.8136
▁are	-5.87614
▁out	-5.9234
▁were	-5.93364
▁man	-5.93526
▁upon	-5.94657
▁you	-5.96768
▁Israel	-5.99606
3	-6.00871
▁by	-6.00967
▁this	-6.0353
4	-6.03623
▁when	-6.0395
▁king	-6.03983
8	-6.04291
7	-6.05165
▁but	-6.05226
d	-6.06238
0	-6.06656
6	-6.07041
▁up	-6.07478
9	-6.0803
2	-6.082
ing	-6.09753
5	-6.13842
▁hath	-6.14521
▁people	-6.18669
▁came	-6.1951
▁son	-6.19682
▁there	-6.2049
▁had	-6.23493
▁house	-6.23794
'	-6.24419
▁her	-6.24521
▁into	-6.25172
▁on	-6.25846
eth	-6.26643
▁The	-6.29542
▁come	-6.30888
▁one	-6.32968
▁we	-6.35505
▁children	-6.35518
▁before	-6.3685
▁your	-6.37803
▁land	-6.37916
▁day	-6.38682
▁For	-6.39066
▁an	-6.42857
▁also	-6.44027
▁men	-6.44285
▁against	-6.44595
▁shalt	-6.47321
e	-6.48365
▁But	-6.50794
▁at	-6.52262
▁hand	-6.53193
▁us	-6.54838
▁do	-6.59194
▁saying	-6.60183
▁made	-6.60441
▁went	-6.60563
▁no	-6.61501
▁Then	-6.6356
▁even	-6.68197
▁go	-6.68513
▁saith	-6.71869
i	-6.73203
t	-6.74096
▁O	-6.74963
▁every	-6.78617
r	-6.80346
▁things	-6.80372
▁so	-6.80448
▁or	-6.80968
▁our	-6.81463
er	-6.81926
▁down	-6.82745
▁if	-6.84416
▁after	-6.85239
▁hast	-6.85473
p	-6.86238
▁let	-6.86789
th	-6.87247
▁sons	-6.87889
▁Lord	-6.88567
▁David	-6.88943
▁make	-6.89878
▁over	-6.91321
▁may	-6.91346
▁say	-6.9382
ly	-6.94734
▁earth	-6.94767
▁because	-6.94849
▁name	-6.96063
▁these	-6.9618
▁did	-6.97305
▁she	-6.97314
▁Jesus	-6.97477
▁great	-6.98058
▁any	-6.99875
▁He	-7.02418
▁thine	-7.03928
▁away	-7.04366
▁put	-7.05021
▁thereof	-7.05026
▁among	-7.05136
n	-7.05747
▁pass	-7.06033
▁forth	-7.07006
▁brought	-7.08509
▁city	-7.09317
▁am	-7.09485
▁father	-7.10045
▁days	-7.10413
▁heart	-7.11143
▁Moses	-7.11292
▁two	-7.14277
▁Judah	-7.15495
▁Jerusalem	-7.1574
g	-7.15966
▁give	-7.16166
▁therefore	-7.17226
▁should	-7.20133
▁neither	-7.20524
est	-7.21266
▁know	-7.21341
▁good	-7.21837
▁according	-7.2222
▁behold	-7.23704
▁took	-7.23801
▁whom	-7.24387
▁nor	-7.2452
▁then	-7.251
a	-7.25518
▁place	-7.25641
▁offering	-7.26657
▁take	-7.26998
l	-7.27872
▁set	-7.28297
▁who	-7.28308
st	-7.28668
▁bring	-7.29533
y	-7.29626
▁now	-7.30127
▁word	-7.30957
▁sent	-7.32424
▁more	-7.32716
▁eat	-7.3305
▁way	-7.33593
▁like	-7.33851
ar	-7.36559
▁So	-7.37002
▁heard	-7.37959
▁what	-7.38093
▁Thou	-7.40433
▁about	-7.40591
▁Now	-7.40914
b	-7.41003
▁again	-7.41471
▁hundred	-7.41541
▁time	-7.41666
▁called	-7.41808
▁mine	-7.425
▁evil	-7.42661
▁own	-7.42661
▁see	-7.43226
en	-7.44163
▁Egypt	-7.44442
o	-7.44479
▁heaven	-7.4522
▁Behold	-7.46937
▁spake	-7.47103
▁A	-7.47105
m	-7.49189
u	-7.49491
▁Christ	-7.50351
▁saw	-7.50873
c	-7.50947
▁done	-7.52308
▁law	-7.52798
▁yet	-7.53222
▁fire	-7.53537
▁brethren	-7.54611
▁priest	-7.55369
▁thing	-7.55556
▁words	-7.56841
▁fathers	-7.56921
▁cast	-7.57368
▁years	-7.57444
k	-7.57658
▁many	-7.57901
▁S	-7.58767
ah	-7.59357
▁himself	-7.5944
f	-7.59669
▁thousand	-7.59706
▁voice	-7.60204
▁might	-7.6033
▁work	-7.60437
an	-7.61536
▁eyes	-7.63529
▁servant	-7.64028
▁given	-7.64854
▁off	-7.65372
▁If	-7.65616
▁answered	-7.65819
le	-7.65923
al	-7.66889
in	-7.67547
▁than	-7.67718
▁together	-7.67769
▁2:1	-7.67928
▁other	-7.68345
▁three	-7.69018
▁ever	-7.69582
▁servants	-7.70374
▁sin	-7.70575
▁holy	-7.70921
▁gave	-7.71708
▁blood	-7.71778
▁speak	-7.71986
▁through	-7.72207
▁soul	-7.72446
▁first	-7.73083
▁hear	-7.73118
▁seven	-7.7363
▁life	-7.74175
▁another	-7.75061
▁art	-7.75183
on	-7.75288
▁hands	-7.75292
▁cities	-7.75509
▁Thus	-7.75512
▁commanded	-7.75816
▁sword	-7.75955
▁those	-7.75955
▁side	-7.7602
▁would	-7.7633
▁mouth	-7.76857
or	-7.78432
▁Therefore	-7.78455
▁1:1	-7.78859
▁Let	-7.7938
▁sea	-7.80003
▁high	-7.80079
▁without	-7.80117
▁water	-7.80132
z	-7.80182
▁flesh	-7.81019
▁gold	-7.81198
▁peace	-7.81493
▁found	-7.81714
▁Saul	-7.81968
▁face	-7.82041
es	-7.835
▁themselves	-7.84625
▁brother	-7.84871
▁wife	-7.85116
▁They	-7.85435
▁under	-7.85612
▁keep	-7.86163
▁drink	-7.86603
▁glory	-7.86603
el	-7.87164
▁how	-7.88159
▁priests	-7.88324
▁fear	-7.89059
ers	-7.89122
am	-7.89128
w	-7.89263
▁old	-7.91202
▁altar	-7.91632
▁year	-7.91776
▁spirit	-7.92253
▁Jacob	-7.92783
▁where	-7.93742
▁death	-7.93863
▁c	-7.93919
▁cause	-7.94158
▁dead	-7.94672
▁head	-7.9496
▁dwell	-7.9527
re	-7.95305
▁congregation	-7.95475
▁wicked	-7.95713
▁burnt	-7.95798
▁right	-7.96022
h	-7.96064
▁midst	-7.96297
▁When	-7.96576
▁6:1	-7.96665
ness	-7.96811
▁bread	-7.97577
▁tabernacle	-7.98241
▁woman	-7.98522
▁both	-7.99098
▁In	-7.9945
▁Aaron	-7.99654
▁end	-7.99901
▁What	-7.99939
▁left	-7.99939
▁until	-8.00798
▁none	-8.0113
▁kingdom	-8.01654
▁toward	-8.01821
▁five	-8.0254
▁stood	-8.0254
▁war	-8.02586
▁four	-8.03023
ch	-8.03498
▁taken	-8.03903
▁That	-8.04616
▁nations	-8.04695
▁This	-8.04914
▁sight	-8.04918
▁pray	-8.04974
v	-8.05072
▁same	-8.05239
▁cut	-8.05526
▁mother	-8.07032
▁daughter	-8.07067
▁been	-8.07078
▁die	-8.07618
▁light	-8.07645
▁love	-8.07661
▁night	-8.083
▁P	-8.08863
▁5:1	-8.08932
▁round	-8.09199
▁silver	-8.09199
▁deliver	-8.09498
▁young	-8.10348
ites	-8.10708
▁rest	-8.12088
▁Be	-8.12444
▁As	-8.12555
ph	-8.129
▁kings	-8.13263
sh	-8.13668
▁Solomon	-8.14007
▁righteousness	-8.14035
▁13:1	-8.14101
▁9:1	-8.14145
▁wilderness	-8.14336
ir	-8.15092
▁covenant	-8.15663
▁GOD	-8.15998
▁Babylon	-8.16333
▁11:1	-8.16506
▁hosts	-8.16577
▁fall	-8.16611
us	-8.16647
▁meat	-8.17002
▁live	-8.17012
▁judgment	-8.17141
▁chief	-8.17687
▁field	-8.17827
im	-8.17853
▁world	-8.18028
▁destroy	-8.18042
▁twenty	-8.18371
ite	-8.18377
▁delivered	-8.18386
▁lord	-8.18714
▁thus	-8.1906
▁stand	-8.19182
▁power	-8.19405
▁14:1	-8.19464
▁Ye	-8.19915
▁spoken	-8.20101
▁full	-8.20124
▁turned	-8.20409
▁1:2	-8.20499
▁bear	-8.20618
▁waters	-8.20721
▁Son	-8.20728
▁Go	-8.20738
▁seed	-8.20952
▁much	-8.21155
▁whose	-8.21203
▁mighty	-8.21631
▁told	-8.22225
▁written	-8.22574
▁laid	-8.22575
▁E	-8.22703
▁cometh	-8.22926
▁Pharaoh	-8.22933
▁Who	-8.23217
▁iniquity	-8.23293
▁gate	-8.23503
▁strong	-8.23654
▁seen	-8.23846
▁4:1	-8.24302
▁Father	-8.24744
▁4:2	-8.24745
▁well	-8.24805
▁mercy	-8.25111
ur	-8.25155
▁7:2	-8.25479
▁3:1	-8.25984
▁princes	-8.26176
▁turn	-8.26442
▁enemies	-8.26589
▁mount	-8.26963
▁9:2	-8.26963
▁wise	-8.2697
ad	-8.27342
▁16:1	-8.27429
▁gathered	-8.27555
▁multitude	-8.27713
▁works	-8.27935
▁Levites	-8.28183
▁ten	-8.28276
▁lay	-8.28469
▁8:1	-8.28547
▁being	-8.28821
▁Wherefore	-8.29614
▁very	-8.30385
▁return	-8.30444
▁offerings	-8.30566
▁shew	-8.30975
▁15:1	-8.31192
▁10:1	-8.31297
ri	-8.31414
▁part	-8.3145
▁feet	-8.31562
▁3:2	-8.31749
▁praise	-8.31944
▁5:2	-8.32073
▁seek	-8.32272
▁T	-8.32279
▁Philistines	-8.32453
▁month	-8.3264
▁11:2	-8.32795
▁18:1	-8.33184
▁whole	-8.33265
▁Jews	-8.33267
▁faith	-8.33513
▁offer	-8.33619
▁Abraham	-8.33929
▁Joseph	-8.33929
▁such	-8.33935
▁7:1	-8.34205
▁prophet	-8.34251
ath	-8.34473
▁daughters	-8.34686
▁fell	-8.34718
at	-8.34817
▁It	-8.34819
▁21:1	-8.35285
▁walk	-8.35433
▁send	-8.35545
▁long	-8.35545
ion	-8.3555
▁disciples	-8.36468
▁tribe	-8.36714
▁righteous	-8.3674
▁19:1	-8.37188
▁gods	-8.37471
▁strength	-8.3796
▁inheritance	-8.38022
▁little	-8.38858
▁6:2	-8.38899
▁wine	-8.39282
▁prophets	-8.39363
▁My	-8.39704
▁truth	-8.40129
▁anger	-8.4013
▁22:1	-8.40216
▁10:2	-8.40233
▁certain	-8.40986
▁some	-8.41043
▁between	-8.41417
▁hold	-8.41528
▁17:1	-8.41542
▁yea	-8.41544
▁smote	-8.42284
▁ark	-8.42287
iah	-8.4231
▁therein	-8.42715
▁concerning	-8.4316
▁8:2	-8.4316
▁morning	-8.436
▁can	-8.43608
▁save	-8.43811
▁dwelt	-8.44043
▁2:2	-8.44149
▁These	-8.44211
▁11	-8.44452
▁begat	-8.44488
▁We	-8.44624
▁sacrifice	-8.45162
il	-8.45338
▁wisdom	-8.45382
▁nothing	-8.45386
▁known	-8.46585
▁only	-8.46704
ce	-8.4673
▁above	-8.46739
oth	-8.46766
li	-8.47205
▁serve	-8.47423
▁stone	-8.47772
▁20:1	-8.47815
▁12:1	-8.48048
▁Joshua	-8.48116
▁child	-8.48578
▁departed	-8.48777
▁thyself	-8.49044
▁wilt	-8.49044
it	-8.49336
▁near	-8.49511
▁To	-8.49546
▁temple	-8.4998
▁There	-8.50029
▁gone	-8.50046
▁cubits	-8.50168
▁15:2	-8.5048
▁14:2	-8.50987
▁fruit	-8.51455
▁lest	-8.51883
▁18:2	-8.5193
▁places	-8.52116
▁poor	-8.52845
▁call	-8.53304
▁sat	-8.53825
▁judge	-8.5389
▁23:1	-8.54421
▁Because	-8.54801
▁oil	-8.54801
▁tree	-8.54905
▁manner	-8.55299
▁inhabitants	-8.5544
▁12:2	-8.55446
▁All	-8.5582
▁24:1	-8.55883
▁angel	-8.55907
▁ways	-8.56289
▁wrath	-8.56293
▁sheep	-8.56294
▁13:2	-8.56402
se	-8.56418
▁died	-8.5667
▁tell	-8.56796
▁cried	-8.56796
▁Jordan	-8.57808
▁slew	-8.57808
▁book	-8.58319
▁surely	-8.58339
▁host	-8.58459
▁b	-8.58524
▁find	-8.58831
▁ground	-8.58831
▁door	-8.59282
▁unclean	-8.59834
▁afraid	-8.59865
▁while	-8.59877
ba	-8.60074
▁six	-8.6028
▁Je	-8.60438
ab	-8.60468
▁wall	-8.60546
▁bare	-8.60621
▁yourselves	-8.60909
▁broken	-8.61436
▁22:2	-8.61518
▁build	-8.61826
▁rejoice	-8.62264
▁cannot	-8.62497
▁number	-8.6324
▁lo	-8.6342
▁twelve	-8.63569
▁m	-8.63673
▁throne	-8.6411
▁far	-8.64112
▁How	-8.64123
▁blessed	-8.6433
ho	-8.64509
▁within	-8.64539
▁women	-8.64653
▁de	-8.64776
▁21:2	-8.64803
▁doth	-8.64923
▁Ha	-8.65062
▁returned	-8.65116
▁Ephraim	-8.65199
▁slain	-8.65199
▁third	-8.65199
▁country	-8.65201
▁beast	-8.65416
▁reign	-8.6542
▁Of	-8.65531
as	-8.65557
▁L	-8.66091
▁river	-8.66526
▁cry	-8.67203
▁knew	-8.67416
▁began	-8.67417
▁sun	-8.67439
▁elders	-8.67513
▁16:2	-8.6752
▁lie	-8.6757
▁commandment	-8.67658
▁battle	-8.67977
▁though	-8.68156
▁gather	-8.68214
▁stones	-8.68403
▁Paul	-8.68542
ve	-8.68911
▁sake	-8.69111
▁mountains	-8.6923
▁reigned	-8.69452
▁body	-8.69682
▁kept	-8.69682
▁receive	-8.6992
▁break	-8.70257
▁families	-8.70257
▁having	-8.70835
▁thirty	-8.70835
▁arose	-8.70835
▁help	-8.70839
▁Moab	-8.71389
▁Spirit	-8.71416
▁second	-8.71416
▁look	-8.7148
▁joy	-8.71985
▁knowledge	-8.72001
▁sabbath	-8.72001
▁could	-8.72003
ation	-8.7223
▁back	-8.72578
▁19:2	-8.72589
▁till	-8.72598
▁commandments	-8.72929
▁built	-8.73181
▁sins	-8.73267
▁20:2	-8.73339
▁teach	-8.73776
▁enter	-8.73819
▁ear	-8.73893
▁valley	-8.74375
▁25:1	-8.74533
▁destroyed	-8.74953
▁wind	-8.74977
▁Benjamin	-8.74977
▁fat	-8.74983
▁tongue	-8.75583
▁received	-8.75828
▁Peter	-8.76193
▁26:1	-8.76292
em	-8.76664
▁feast	-8.76807
▁throughout	-8.76814
▁darkness	-8.77434
▁Me	-8.78099
▁filled	-8.78148
ous	-8.78576
▁new	-8.7867
ful	-8.78825
▁open	-8.7897
▁border	-8.79039
ow	-8.79083
▁G	-8.79091
▁able	-8.79149
▁passed	-8.79255
▁Take	-8.79299
▁4:3	-8.79299
▁23:2	-8.7941
▁understanding	-8.79443
▁She	-8.7945
▁C	-8.79638
▁born	-8.7978
▁burn	-8.79821
▁salvation	-8.79932
▁lifted	-8.80159
▁bow	-8.80259
▁east	-8.80558
▁counsel	-8.80569
▁neighbour	-8.80569
▁1:3	-8.80569
▁11:3	-8.80676
▁re	-8.80919
▁2:3	-8.8121
▁perish	-8.81215
▁wherein	-8.81323
▁kill	-8.81526
▁trees	-8.81719
▁fifty	-8.81855
▁whether	-8.81855
▁10:3	-8.82024
▁vessels	-8.8277
▁beasts	-8.82903
▁cattle	-8.83158
▁forty	-8.83162
▁Zion	-8.83179
▁28:1	-8.83293
▁trust	-8.83484
ma	-8.83513
▁honour	-8.83804
▁husband	-8.83807
▁Thy	-8.83851
▁hid	-8.84117
ent	-8.84448
ish	-8.8507
▁court	-8.85145
▁master	-8.85145
▁become	-8.85145
▁heathen	-8.85146
om	-8.85277
▁ears	-8.85464
▁spoil	-8.85486
▁Jeremiah	-8.85816
▁must	-8.85816
ai	-8.85906
▁thence	-8.8593
▁here	-8.86336
▁clean	-8.86338
▁8:3	-8.86492
▁Ma	-8.86585
▁27:1	-8.86636
▁fled	-8.86656
▁believe	-8.86835
▁st	-8.87033
▁Manasseh	-8.87172
▁desolate	-8.87172
▁living	-8.87172
▁t	-8.87719
▁grace	-8.87857
▁camp	-8.87858
▁answer	-8.8799
um	-8.88223
▁nation	-8.88353
ter	-8.88423
▁carried	-8.88546
▁money	-8.88546
▁Joab	-8.88558
ings	-8.88883
▁Moreover	-8.89241
▁Samuel	-8.89241
▁9:3	-8.89241
▁Holy	-8.89292
is	-8.89448
▁Ja	-8.89627
▁south	-8.89929
▁5:	-8.89987
▁looked	-8.90336
▁offered	-8.9052
▁rise	-8.9056
▁pit	-8.90577
▁witness	-8.90609
▁Why	-8.90644
▁hope	-8.90645
ol	-8.90674
▁gates	-8.90967
▁Assyria	-8.91354
▁slay	-8.91354
▁wood	-8.91354
▁7:3	-8.91354
▁charge	-8.91836
▁captain	-8.91898
man	-8.92041
▁present	-8.92068
▁why	-8.92068
▁meet	-8.92078
▁times	-8.92447
▁labour	-8.92787
▁leave	-8.93422
▁John	-8.93512
ul	-8.94077
▁mountain	-8.94088
▁mind	-8.94242
▁24:2	-8.94343
▁opened	-8.94625
▁minister	-8.94646
▁shewed	-8.94863
▁half	-8.94977
▁sanctuary	-8.94977
▁whatsoever	-8.95012
▁15:3	-8.95025
▁sister	-8.95718
un	-8.95748
▁rock	-8.96464
▁most	-8.9665
ge	-8.96894
▁north	-8.97315
▁17:2	-8.97383
▁goeth	-8.97573
▁stranger	-8.9791
▁Isaac	-8.97974
▁smite	-8.97974
▁service	-8.97977
▁whosoever	-8.98013
▁12:	-8.98143
ut	-8.9815
ha	-8.98171
▁statutes	-8.98209
▁incense	-8.98737
▁wives	-8.98737
▁rose	-8.98737
▁depart	-8.99177
▁trouble	-8.99274
▁prayer	-8.99274
▁un	-8.9939
▁spread	-8.99506
▁6:3	-8.99587
▁beside	-8.99677
▁Gentiles	-9.00282
▁1:4	-9.00282
▁B	-9.00746
▁worship	-9.01062
▁fast	-9.01063
▁Hezekiah	-9.01063
▁Which	-9.01063
▁perfect	-9.01063
▁plague	-9.01063
▁heavens	-9.01317
▁desire	-9.01379
▁numbered	-9.01544
▁Where	-9.0168
▁captivity	-9.0185
▁29:1	-9.02054
▁hearken	-9.02314
▁prison	-9.02644
▁brass	-9.02644
▁Baal	-9.02658
▁appointed	-9.02756
▁25:2	-9.02805
▁3:3	-9.02877
▁One	-9.02892
▁giveth	-9.0332
▁sought	-9.03444
▁Come	-9.03444
▁maketh	-9.03524
▁wickedness	-9.03546
ward	-9.04234
▁Samaria	-9.0425
▁bless	-9.04293
E	-9.04413
▁wait	-9.04731
▁judgments	-9.04743
▁dream	-9.05063
▁family	-9.05063
▁chosen	-9.05083
▁walked	-9.05724
▁ashamed	-9.05883
▁30:1	-9.06071
▁21:	-9.06524
▁Jonathan	-9.06709
na	-9.06926
▁pieces	-9.07025
▁didst	-9.07279
▁eye	-9.07495
▁Blessed	-9.07591
▁con	-9.07673
▁seventh	-9.07942
▁generations	-9.08342
▁lips	-9.08383
▁sweet	-9.08383
▁sound	-9.08383
▁sinned	-9.08384
▁flee	-9.08396
▁3:	-9.08547
able	-9.08633
▁sp	-9.08644
▁Yet	-9.08664
▁asked	-9.08699
ay	-9.09005
▁myself	-9.09231
▁possession	-9.09254
▁captains	-9.09433
mon	-9.09644
▁houses	-9.09767
▁curse	-9.09852
▁20:	-9.09927
▁reproach	-9.10085
if	-9.10201
▁5:3	-9.10388
▁sit	-9.10444
▁command	-9.10612
▁fine	-9.10947
▁portion	-9.10947
▁presence	-9.10947
▁watch	-9.10947
▁2:4	-9.10948
▁rod	-9.10948
ne	-9.11053
▁believed	-9.11242
▁suburbs	-9.11817
▁shut	-9.11817
▁rain	-9.11817
▁12:3	-9.12102
▁Hear	-9.12327
▁possess	-9.12339
▁cloud	-9.12686
▁Gilead	-9.12694
▁bound	-9.12694
▁vain	-9.12694
▁26:2	-9.12803
▁31:1	-9.12882
ate	-9.13058
▁mayest	-9.13375
ies	-9.13565
▁firstborn	-9.13579
▁chariots	-9.14085
▁corn	-9.14324
▁plain	-9.14472
▁fight	-9.14472
▁shame	-9.14472
▁flock	-9.14482
gh	-9.14551
▁ask	-9.14781
▁foot	-9.15373
▁trespass	-9.15373
▁going	-9.15393
▁14:3	-9.15499
▁tribes	-9.15505
▁horses	-9.1579
▁enemy	-9.16282
▁beginning	-9.16282
▁28:2	-9.16426
▁33:1	-9.16492
▁13:3	-9.16496
▁suffer	-9.16868
▁lift	-9.1687
▁alone	-9.17199
▁followed	-9.175
▁remember	-9.17795
▁W	-9.17868
▁Absalom	-9.18125
▁became	-9.18125
▁dust	-9.18125
▁bullock	-9.18166
▁lion	-9.18169
▁generation	-9.1817
▁23:3	-9.18302
▁heads	-9.18507
ling	-9.18646
▁Do	-9.18795
ted	-9.18994
▁Canaan	-9.19029
▁whither	-9.19052
▁covered	-9.1932
▁entered	-9.19578
▁faithful	-9.2004
▁better	-9.20216
da	-9.20231
▁lot	-9.20413
▁hearts	-9.20446
▁10	-9.20471
▁10:	-9.20751
▁buried	-9.20956
▁wherewith	-9.20956
▁Edom	-9.20956
▁still	-9.2097
▁reward	-9.20972
ek	-9.21002
▁eaten	-9.21338
▁sore	-9.21356
be	-9.21752
▁Jeroboam	-9.21917
▁gospel	-9.21917
▁linen	-9.21945
he	-9.21955
▁27:2	-9.22075
▁29:2	-9.22108
▁Yea	-9.2211
▁No	-9.22126
to	-9.22321
▁saved	-9.22424
av	-9.22438
▁just	-9.22882
▁Also	-9.22888
▁Neither	-9.22888
▁matter	-9.22888
▁vision	-9.22888
▁image	-9.22977
▁beloved	-9.22994
▁sing	-9.23109
▁dis	-9.23228
▁knoweth	-9.23336
▁remain	-9.23345
hu	-9.235
▁increase	-9.23635
▁garments	-9.23637
▁understand	-9.23643
▁morrow	-9.23868
▁pure	-9.23869
▁oxen	-9.23905
▁R	-9.23917
▁32:1	-9.24025
▁prepared	-9.24043
ill	-9.24113
▁Sha	-9.24125
▁clothes	-9.24151
▁sick	-9.24826
▁19:3	-9.24858
▁burden	-9.24858
▁small	-9.24858
▁wrought	-9.24858
▁coming	-9.24859
▁7:4	-9.24859
▁utterly	-9.24932
▁18:3	-9.2497
▁prince	-9.2497
▁34:1	-9.25037
▁idols	-9.25113
▁Eli	-9.2558
▁nigh	-9.25743
▁Ammon	-9.25834
▁Esau	-9.25858
▁skin	-9.25858
▁ready	-9.25918
od	-9.26225
▁tent	-9.26272
▁ass	-9.26302
▁follow	-9.26312
▁loved	-9.26718
▁famine	-9.26869
▁ought	-9.26869
▁4:4	-9.26869
▁iron	-9.2687
▁anointed	-9.26988
▁bones	-9.27037
▁20:3	-9.27161
sha	-9.27209
ck	-9.27501
▁hate	-9.27577
lo	-9.27579
▁secret	-9.27889
▁sleep	-9.27889
▁thither	-9.27889
▁upright	-9.27889
▁Egyptians	-9.2816
▁wash	-9.28184
▁goats	-9.28207
▁burned	-9.28422
▁arm	-9.28511
▁17:	-9.28717
▁glad	-9.28885
▁everlasting	-9.2892
▁fail	-9.2892
▁Even	-9.2892
▁hour	-9.2892
▁seeing	-9.2932
ance	-9.29426
▁rule	-9.29844
for	-9.29855
▁grave	-9.29875
▁saints	-9.29962
▁stead	-9.29962
▁riches	-9.29998
▁consumed	-9.30104
▁16:3	-9.30173
▁liveth	-9.30286
▁shekels	-9.30361
▁13:	-9.30595
▁sorrow	-9.30999
▁blind	-9.31014
▁ex	-9.3207
▁carry	-9.32078
▁Ahab	-9.32086
▁Gad	-9.32233
▁ram	-9.32265
▁doeth	-9.32839
▁caused	-9.33
j	-9.33153
▁destruction	-9.33153
▁committed	-9.33162
▁feed	-9.33207
▁Ar	-9.33252
▁removed	-9.33255
▁30:2	-9.33342
▁sign	-9.33348
▁bed	-9.33507
▁Jo	-9.33676
▁Is	-9.33692
ea	-9.33753
▁Mi	-9.33825
▁angels	-9.33992
less	-9.34171
▁compass	-9.34216
▁deal	-9.34218
▁Re	-9.3422
▁reason	-9.3424
▁remnant	-9.3424
▁threescore	-9.3424
▁vow	-9.34241
▁1:5	-9.34241
▁free	-9.34243
▁noise	-9.34255
▁21:3	-9.34566
ci	-9.34741
ver	-9.34833
▁Reuben	-9.35339
▁vine	-9.35339
men	-9.35355
ll	-9.35414
▁22:3	-9.35525
▁get	-9.35978
ity	-9.36362
▁Syria	-9.3645
▁Ghost	-9.3645
ia	-9.36652
▁F	-9.36652
▁devour	-9.37243
me	-9.37478
▁favour	-9.37574
iel	-9.37661
▁25:	-9.37692
▁declare	-9.37924
▁top	-9.3793
▁breadth	-9.37999
▁pillars	-9.38046
▁names	-9.38297
▁read	-9.38688
▁His	-9.3871
▁Surely	-9.3871
▁alive	-9.38711
▁arise	-9.38716
▁affliction	-9.3872
▁12:4	-9.39074
▁Give	-9.3986
▁write	-9.3986
▁wherefore	-9.3986
▁low	-9.39942
▁Pharisees	-9.39989
▁garment	-9.40132
▁D	-9.40137
▁ruler	-9.40252
▁29:	-9.4041
▁comfort	-9.4069
▁After	-9.41022
▁company	-9.41022
▁consider	-9.41022
▁last	-9.41022
▁prophesy	-9.41022
▁visit	-9.41022
▁never	-9.41023
▁drew	-9.41023
▁6:4	-9.41142
▁early	-9.41211
▁36:1	-9.41226
▁greatly	-9.42122
▁crown	-9.42199
▁widow	-9.42199
▁Abi	-9.42234
▁By	-9.42302
▁raised	-9.42385
▁poured	-9.42491
▁cover	-9.42576
▁At	-9.42801
▁J	-9.42985
▁mourn	-9.43163
▁need	-9.43324
▁rich	-9.43349
▁eight	-9.43354
▁Jehoshaphat	-9.43389
▁false	-9.43389
▁vanity	-9.43389
▁Daniel	-9.43397
▁hair	-9.4341
▁32:2	-9.43535
▁See	-9.43537
▁fourth	-9.43817
▁delight	-9.44594
▁sware	-9.44594
▁foolish	-9.44607
▁El	-9.44745
▁35:1	-9.44863
▁thought	-9.45172
▁sold	-9.45335
▁16:	-9.45569
▁atonement	-9.45814
▁fulfilled	-9.45814
▁pitched	-9.45814
▁army	-9.45894
▁An	-9.45952
▁11:4	-9.46015
▁hearkened	-9.46324
rs	-9.46382
▁hide	-9.46484
bo	-9.469
▁draw	-9.46961
▁governor	-9.47048
▁hither	-9.47048
▁taught	-9.47048
▁Gutenberg	-9.47049
▁deep	-9.4705
▁continually	-9.47087
▁tenth	-9.47437
▁Beth	-9.47891
▁lambs	-9.47903
ke	-9.48211
▁Shall	-9.48296
▁abroad	-9.48298
▁length	-9.48298
▁neck	-9.48298
▁search	-9.48298
▁2:5	-9.48299
▁Th	-9.48374
▁3:4	-9.48657
▁ship	-9.48837
▁flocks	-9.4955
▁Hebron	-9.49564
▁shadow	-9.49564
▁true	-9.49564
▁white	-9.49564
▁lead	-9.49565
▁Elisha	-9.4958
▁31:2	-9.49772
▁fallen	-9.49785
▁healed	-9.49874
▁messengers	-9.49947
▁ch	-9.4996
pa	-9.50054
▁Ch	-9.50266
▁abide	-9.5074
▁brake	-9.50846
▁habitation	-9.50846
▁likewise	-9.50846
▁9:4	-9.50847
▁hard	-9.50849
▁Dan	-9.50893
▁23:	-9.50907
▁led	-9.50924
▁Amen	-9.50958
▁Ho	-9.51033
▁hill	-9.51253
▁lamb	-9.51253
▁bringeth	-9.51295
▁33:	-9.51367
▁Hav	-9.51408
▁bowed	-9.51514
▁knowest	-9.51586
ry	-9.51664
▁rulers	-9.5185
▁prepare	-9.51913
▁strange	-9.52027
▁utter	-9.52045
ub	-9.52088
▁church	-9.52103
▁sacrifices	-9.52108
▁Woe	-9.52145
▁perform	-9.52145
▁cup	-9.52145
▁Zi	-9.52183
▁37:1	-9.52313
▁38:1	-9.52395
▁abomination	-9.52569
▁table	-9.5259
▁30:	-9.52681
now	-9.52993
▁cease	-9.53227
▁rams	-9.53234
soever	-9.53299
▁pro	-9.5342
▁commit	-9.53444
▁prosper	-9.53452
▁passover	-9.53461
▁Selah	-9.53461
▁Simon	-9.53461
▁7:5	-9.53461
▁1:6	-9.53461
▁Project	-9.535
▁moved	-9.5353
red	-9.53626
▁wings	-9.53634
▁34:2	-9.53643
▁strangers	-9.53692
▁33:2	-9.53694
I	-9.54149
▁blessing	-9.54204
▁waste	-9.54239
▁41:	-9.54264
▁ran	-9.54287
9:7	-9.54435
▁pour	-9.54465
▁fig	-9.54794
▁precious	-9.54794
▁testimony	-9.54794
▁1:7	-9.54795
▁cedar	-9.54795
▁branches	-9.54812
▁forsaken	-9.54864
▁dwelling	-9.54864
▁greater	-9.54883
▁villages	-9.54909
▁god	-9.55256
▁sow	-9.55303
Z	-9.55456
▁served	-9.55474
▁rivers	-9.55596
▁35:	-9.55615
▁abominations	-9.55706
9:9	-9.55783
▁fl	-9.55811
▁journey	-9.55813
x	-9.56128
▁Levi	-9.56145
▁Eleazar	-9.56145
▁think	-9.56145
▁souls	-9.56232
▁established	-9.56359
▁25:3	-9.56442
▁fool	-9.56605
▁appear	-9.57175
▁taketh	-9.57186
▁51:	-9.57213
▁speaketh	-9.57352
▁behind	-9.57515
▁profit	-9.57515
▁sojourn	-9.57515
▁womb	-9.57515
▁Arise	-9.57515
▁prey	-9.57515
▁Amorites	-9.57683
▁clothed	-9.57773
▁feared	-9.57907
▁Galilee	-9.58904
▁Speak	-9.58904
▁dry	-9.58906
erily	-9.58907
▁household	-9.59014
▁defiled	-9.59049
▁27:	-9.59074
▁pr	-9.59093
▁40:1	-9.59122
▁scattered	-9.59129
▁stretched	-9.59134
▁10:4	-9.59262
▁3:5	-9.59265
▁aside	-9.5927
▁31:	-9.59293
▁thanks	-9.59352
▁Za	-9.5953
ting	-9.59737
▁Ne	-9.59905
▁Lebanon	-9.60313
▁2:6	-9.60313
▁wept	-9.60433
▁since	-9.6049
ach	-9.6054
▁5:4	-9.60801
▁shouldest	-9.61138
▁seat	-9.61255
▁obey	-9.61409
▁youth	-9.61441
▁images	-9.6161
ment	-9.61648
▁inherit	-9.61732
▁Nevertheless	-9.61741
▁abode	-9.61741
▁beseech	-9.61741
▁root	-9.61741
▁sepulchre	-9.61741
▁snare	-9.61741
▁swear	-9.61741
▁8:4	-9.61742
▁worshipped	-9.61742
▁season	-9.61743
▁Job	-9.61832
▁measure	-9.6206
▁appeared	-9.62087
▁28:	-9.62216
▁vineyard	-9.62295
▁heal	-9.62453
▁br	-9.62711
▁faces	-9.62744
▁doors	-9.62785
ac	-9.62972
▁22:	-9.63189
▁Elijah	-9.6319
▁few	-9.6319
▁fury	-9.6319
▁pleasure	-9.6319
▁synagogue	-9.6319
▁indeed	-9.63191
▁whereof	-9.63191
▁6:5	-9.63325
▁divided	-9.63389
▁west	-9.63614
▁troubled	-9.63631
▁killed	-9.63938
▁redeem	-9.6433
▁raise	-9.6443
har	-9.64595
▁Asa	-9.6466
▁abundance	-9.64661
▁shield	-9.64661
▁verily	-9.64661
▁With	-9.6467
▁Jehu	-9.64688
▁afterward	-9.64847
▁scribes	-9.65375
S	-9.65507
▁wast	-9.65614
▁observe	-9.66154
▁wave	-9.66154
▁run	-9.66155
▁rent	-9.66155
lah	-9.66158
▁worthy	-9.66164
▁rid	-9.66181
▁Bethel	-9.662
▁weight	-9.66281
▁12	-9.66444
▁horns	-9.66674
▁soon	-9.669
ice	-9.67015
os	-9.6703
▁promise	-9.67436
▁Chaldeans	-9.67669
▁acts	-9.67669
▁hurt	-9.67669
▁1:8	-9.6767
▁Abimelech	-9.67671
▁kindled	-9.67745
▁order	-9.67781
▁36:2	-9.67872
▁26:3	-9.67873
▁14:4	-9.67877
▁golden	-9.68047
▁3:6	-9.68091
▁Lo	-9.68182
▁trumpet	-9.68313
▁chambers	-9.6839
ni	-9.68517
▁song	-9.68656
▁seeth	-9.68673
▁11:	-9.68785
▁tents	-9.69027
▁thereon	-9.69069
▁kind	-9.69098
▁Shechem	-9.69207
▁garden	-9.69207
▁parable	-9.69207
▁virgin	-9.69207
▁yoke	-9.69207
▁shout	-9.69207
▁home	-9.69208
▁8:5	-9.69208
▁1:9	-9.69208
▁forgive	-9.69209
▁office	-9.69249
▁tower	-9.69304
▁add	-9.69394
our	-9.69441
▁streets	-9.69702
▁loveth	-9.69736
▁chariot	-9.69879
▁hills	-9.70276
▁walls	-9.70289
▁38:	-9.70395
▁escape	-9.70537
▁ox	-9.70712
▁Jericho	-9.7077
▁blemish	-9.7077
▁condemn	-9.7077
▁fair	-9.7077
▁fought	-9.7077
▁cherubims	-9.7077
▁spear	-9.7077
▁oath	-9.70771
▁1:10	-9.70786
wo	-9.70811
▁asses	-9.70865
▁prayed	-9.7092
▁exalted	-9.70939
eep	-9.71463
▁height	-9.715
▁Az	-9.7184
ant	-9.71903
▁39:	-9.71991
der	-9.72351
▁Abner	-9.72357
▁Balaam	-9.72357
▁From	-9.72357
▁daily	-9.72357
▁dominion	-9.72357
▁harvest	-9.72357
▁purpose	-9.72357
▁savour	-9.72357
▁smitten	-9.72357
▁loins	-9.72358
▁37:2	-9.72515
▁27:3	-9.72639
▁redeemed	-9.72715
▁coast	-9.73075
▁judged	-9.73117
N	-9.73315
T	-9.73322
rib	-9.736
▁drive	-9.73883
▁Zedekiah	-9.7397
▁choose	-9.7397
▁flood	-9.7397
▁grass	-9.7397
▁learn	-9.7397
▁rather	-9.7397
▁sanctify	-9.7397
▁wrote	-9.7397
▁faint	-9.7397
▁loud	-9.73971
▁2:7	-9.73971
▁weak	-9.73971
▁sanctified	-9.73983
▁Or	-9.741
▁6:6	-9.7413
▁pleased	-9.74142
rt	-9.74181
▁13:4	-9.74342
▁parts	-9.74397
▁1:11	-9.74458
co	-9.7459
▁preach	-9.75049
▁treasures	-9.75103
▁On	-9.75373
▁forsake	-9.75523
▁Abram	-9.75609
▁fifth	-9.75609
▁2:8	-9.7561
▁2:9	-9.7561
▁Syrians	-9.7561
▁heap	-9.75621
▁moon	-9.75634
▁baptized	-9.75653
▁24:	-9.75804
▁24:3	-9.75855
▁22:4	-9.75881
▁preached	-9.75942
▁others	-9.75987
▁upward	-9.7606
ick	-9.76317
▁devil	-9.76382
▁person	-9.76382
▁burning	-9.76397
▁34:	-9.76495
▁ones	-9.76671
▁plant	-9.76944
▁bond	-9.77267
▁past	-9.77271
▁Bashan	-9.77276
▁Damascus	-9.77276
▁Mordecai	-9.77276
▁Nebuchadnezzar	-9.77276
▁require	-9.77276
▁supplication	-9.77276
▁unleavened	-9.77276
▁Fear	-9.77276
▁seventy	-9.77276
▁7:6	-9.77277
▁edge	-9.77281
▁despised	-9.77501
▁speaking	-9.77534
▁Am	-9.77542
▁39:1	-9.77593
▁apostles	-9.77601
▁always	-9.77616
▁hated	-9.77669
▁captive	-9.78075
▁gift	-9.78077
nah	-9.78261
▁48:	-9.78566
▁consume	-9.78739
▁divide	-9.78776
▁forget	-9.7878
rim	-9.78868
▁regard	-9.78971
▁speech	-9.78971
▁except	-9.78971
▁horsemen	-9.78978
▁endureth	-9.79037
▁err	-9.79046
▁15:4	-9.79078
▁care	-9.79107
▁De	-9.7918
▁evening	-9.79292
▁lieth	-9.79296
▁41:1	-9.79355
▁3:7	-9.79453
▁whence	-9.79871
▁36:	-9.79915
▁despise	-9.80462
▁exceeding	-9.80598
▁flour	-9.80688
▁Every	-9.80695
▁bind	-9.80695
▁Master	-9.80696
▁4:5	-9.80696
▁52:	-9.80696
▁lad	-9.80697
▁officers	-9.80705
▁ha	-9.80867
▁2:12	-9.80884
▁escaped	-9.80953
▁20:4	-9.81185
▁cloth	-9.81614
▁Their	-9.8164
▁thousands	-9.81748
nto	-9.81779
▁3:10	-9.818
A	-9.818
▁lived	-9.81891
▁dwelleth	-9.81918
▁Almighty	-9.82449
▁decree	-9.82449
▁desolation	-9.82449
▁execute	-9.82449
▁handmaid	-9.82449
▁next	-9.82449
▁ordinance	-9.82449
▁pleasant	-9.82449
▁queen	-9.82449
▁raiment	-9.82449
▁sprinkle	-9.82449
▁buy	-9.82449
▁Esther	-9.82449
▁net	-9.82451
▁nakedness	-9.82477
▁14:	-9.82514
▁dealt	-9.82639
▁months	-9.82868
▁17:3	-9.82874
aph	-9.82987
tm	-9.83022
▁remembered	-9.83082
▁once	-9.83199
▁En	-9.83347
▁fields	-9.83499
▁N	-9.83537
▁thoughts	-9.83753
▁hang	-9.83903
ith	-9.84164
▁Pilate	-9.84235
▁carcase	-9.84235
▁countries	-9.84235
▁doctrine	-9.84235
▁honey	-9.84235
▁preserve	-9.84235
▁slaughter	-9.84235
▁Satan	-9.84235
▁proud	-9.84235
▁want	-9.84235
▁9:5	-9.84236
▁lying	-9.84261
▁Canaanites	-9.84294
▁fellow	-9.84302
▁32:3	-9.84472
▁38:2	-9.84499
▁42:1	-9.84511
▁35:2	-9.84541
ron	-9.84708
▁named	-9.84723
▁persons	-9.85202
▁tables	-9.85463
▁Gath	-9.85481
▁3:11	-9.85711
▁Laban	-9.86053
▁countenance	-9.86053
▁food	-9.86053
▁iniquities	-9.86053
▁mingled	-9.86053
▁pluck	-9.86053
▁terrible	-9.86053
▁violence	-9.86053
▁reap	-9.86053
fold	-9.86062
▁Make	-9.86094
▁spare	-9.86115
▁graven	-9.86205
▁Saying	-9.86247
▁44:1	-9.8629
▁31:3	-9.86376
▁26:	-9.86435
▁wonders	-9.86604
▁eateth	-9.86607
▁fowls	-9.86624
▁spoiled	-9.86959
▁devils	-9.87038
▁foundation	-9.87134
▁3:12	-9.87201
▁scribe	-9.87259
R	-9.87265
▁47:	-9.87603
▁1:15	-9.87795
▁grow	-9.87817
▁beyond	-9.87905
▁brook	-9.87905
▁course	-9.87905
▁fierce	-9.87905
▁lust	-9.87905
▁sockets	-9.87905
▁thirst	-9.87905
▁Herod	-9.87905
▁bird	-9.87905
▁harp	-9.87906
▁Mary	-9.87926
▁kingdoms	-9.8798
▁6:7	-9.88093
▁afflicted	-9.88132
riah	-9.8819
▁Na	-9.8827
▁13:5	-9.88292
▁shoulder	-9.88765
▁32:	-9.88768
▁chamber	-9.89028
▁standing	-9.89132
O	-9.89147
▁corrupt	-9.89589
▁maid	-9.89791
▁Again	-9.89792
▁candlestick	-9.89792
▁Simeon	-9.89792
▁Zadok	-9.89792
▁beheld	-9.89792
▁breath	-9.89792
▁immediately	-9.89792
▁scripture	-9.89792
▁serpent	-9.89792
▁Josiah	-9.89792
▁manifest	-9.89792
▁4:6	-9.89793
▁7:7	-9.89793
▁per	-9.89842
▁Haman	-9.89881
▁Noah	-9.89893
ure	-9.89956
▁shed	-9.90269
▁devoured	-9.90352
▁remained	-9.90436
▁age	-9.90505
▁gifts	-9.90798
▁horse	-9.90816
▁friend	-9.9082
▁haste	-9.90907
▁40:	-9.90935
and	-9.91284
aim	-9.91356
▁signs	-9.91365
▁rebuke	-9.9148
▁weep	-9.91494
asmuch	-9.91715
▁19:4	-9.91715
▁Jehoiada	-9.91715
▁remembrance	-9.91715
▁scarlet	-9.91715
▁wheat	-9.91715
▁tremble	-9.91715
▁held	-9.91745
▁bad	-9.91818
teth	-9.91881
▁16:4	-9.92098
▁charged	-9.92347
▁altars	-9.9241
▁desired	-9.92445
▁judges	-9.92455
▁transgression	-9.92792
▁42:	-9.93142
▁heareth	-9.93456
rai	-9.93516
▁lies	-9.93564
▁Ishmael	-9.93676
▁blue	-9.93676
▁distress	-9.93676
▁ephod	-9.93676
▁fourteen	-9.93676
▁guard	-9.93676
▁kid	-9.93676
▁ourselves	-9.93676
▁swallow	-9.93676
▁vex	-9.93676
▁4:7	-9.93677
▁4:8	-9.93677
▁stars	-9.93677
▁each	-9.93677
▁afar	-9.93681
▁mock	-9.93682
▁instruments	-9.9381
▁fill	-9.93843
▁44:2	-9.93871
▁talents	-9.93917
▁risen	-9.93919
▁Art	-9.93966
▁promised	-9.93979
▁mourning	-9.94051
▁doings	-9.94138
▁goodness	-9.94206
▁coasts	-9.94776
▁trumpets	-9.9483
▁builded	-9.94915
▁stretch	-9.95347
▁bitter	-9.9564
rah	-9.9565
▁Naphtali	-9.95676
▁Rehoboam	-9.95676
▁belong	-9.95676
▁damsel	-9.95676
▁duke	-9.95676
▁glorified	-9.95676
▁itself	-9.95676
▁profane	-9.95676
▁prophesied	-9.95676
▁substance	-9.95676
▁bury	-9.95676
▁nine	-9.95676
▁thick	-9.95676
▁teeth	-9.95677
▁4:9	-9.95677
▁shine	-9.95677
▁former	-9.95686
▁camels	-9.95702
▁Whosoever	-9.95717
▁Shi	-9.95831
▁14:5	-9.95925
▁2:16	-9.95928
▁24:4	-9.95969
▁48:1	-9.96033
▁29:3	-9.96107
▁covering	-9.96168
▁suffered	-9.96405
ft	-9.96498
▁male	-9.96819
▁scatter	-9.97386
▁met	-9.97395
▁enquire	-9.97482
▁punish	-9.9771
▁Azariah	-9.97717
▁Hebrew	-9.97717
▁Remember	-9.97717
▁assembly	-9.97717
▁confounded	-9.97717
▁fetch	-9.97717
▁harlot	-9.97717
▁mischief	-9.97717
▁persecute	-9.97717
▁pestilence	-9.97717
▁slept	-9.97717
▁staves	-9.97717
▁thrust	-9.97717
▁tread	-9.97717
▁wroth	-9.97717
▁yield	-9.97717
▁Jezreel	-9.97717
▁Nathan	-9.97717
▁Sodom	-9.97717
▁7:8	-9.97717
▁Joash	-9.97724
▁belly	-9.97727
▁issue	-9.97731
▁Micha	-9.97737
▁driven	-9.97827
▁witnesses	-9.97839
time	-9.97904
ight	-9.97976
▁touched	-9.98016
▁increased	-9.98206
▁friends	-9.98676
prove	-9.98886
▁palace	-9.98901
▁forward	-9.99464
▁establish	-9.99469
▁hell	-9.99618
▁fish	-9.99759
▁Gibeah	-9.998
▁Hittite	-9.998
▁desert	-9.998
▁fountain	-9.998
▁milk	-9.998
▁multiply	-9.998
▁play	-9.998
▁pride	-9.998
▁purple	-9.998
▁roar	-9.998
▁sworn	-9.998
▁thorns	-9.998
▁pay	-9.99802
▁interpretation	-9.99808
▁lodge	-9.99813
▁kindness	-9.99847
▁ends	-9.99991
▁sinners	-10.0019
▁12:5	-10.0041
▁transgressions	-10.0076
▁pillar	-10.0104
pt	-10.0105
▁4:12	-10.0114
▁3:17	-10.0116
8:7	-10.0176
▁Say	-10.0183
▁dark	-10.0189
▁Praise	-10.0193
▁Rachel	-10.0193
▁beauty	-10.0193
▁created	-10.0193
▁eternal	-10.0193
▁glorious	-10.0193
▁grievous	-10.0193
▁palm	-10.0193
▁refuge	-10.0193
▁sackcloth	-10.0193
▁travail	-10.0193
ohath	-10.0193
▁Bring	-10.0193
▁Jesse	-10.0193
▁spring	-10.0193
▁dost	-10.0193
▁Howbeit	-10.0193
▁clouds	-10.0195
▁gladness	-10.02
▁11:5	-10.0225
▁sixth	-10.0236
▁5:9	-10.0264
▁5:8	-10.0267
▁Ham	-10.0308
▁18:	-10.0319
▁vessel	-10.0321
▁4:13	-10.034
▁repent	-10.0376
▁please	-10.0387
ians	-10.0397
▁shake	-10.0401
▁array	-10.041
▁blow	-10.041
▁cleave	-10.041
▁divers	-10.041
▁forgotten	-10.041
▁gain	-10.041
▁olive	-10.041
▁quiet	-10.041
▁confess	-10.041
▁sell	-10.041
▁Zebulun	-10.041
▁conceived	-10.0417
▁15:5	-10.0423
▁18:4	-10.0434
▁40:2	-10.0436
▁measured	-10.0446
▁23:4	-10.0451
▁following	-10.046
▁entering	-10.0494
▁cubit	-10.0543
▁5:12	-10.0573
▁50:	-10.0579
▁keepeth	-10.058
ther	-10.06
▁provoke	-10.0609
▁defile	-10.0609
▁lions	-10.0623
▁goest	-10.0626
▁naked	-10.0629
▁breast	-10.0632
▁multiplied	-10.0632
▁smoke	-10.0632
▁tarry	-10.0632
▁tidings	-10.0632
▁uncover	-10.0632
▁Gibeon	-10.0632
▁towns	-10.0632
▁James	-10.0632
▁8:6	-10.0632
▁imp	-10.0633
▁105:	-10.0633
▁believeth	-10.0667
▁cursed	-10.0694
▁treasure	-10.0702
▁washed	-10.0707
▁tra	-10.0714
▁rejoiced	-10.0731
▁vineyards	-10.0772
8:8	-10.0803
▁Di	-10.0816
▁sides	-10.084
▁bullocks	-10.085
▁Gideon	-10.086
▁Issachar	-10.086
▁Philip	-10.086
▁besought	-10.086
▁eleven	-10.086
▁green	-10.086
▁mercies	-10.086
▁staff	-10.086
▁angry	-10.086
▁wild	-10.086
▁66:	-10.086
▁rings	-10.086
▁girdle	-10.0862
▁bought	-10.0866
▁Asher	-10.0867
▁repaired	-10.0871
▁Lot	-10.0877
▁6:8	-10.0883
▁touch	-10.0885
▁weeping	-10.0887
▁49:1	-10.0888
▁36:3	-10.0893
▁bands	-10.09
▁Ga	-10.09
▁reed	-10.0977
▁4:15	-10.0998
▁shekel	-10.1003
▁piece	-10.1003
▁4:16	-10.1008
▁37:	-10.1014
8:9	-10.1033
▁44:	-10.1039
▁5:13	-10.1044
▁Not	-10.1068
▁appoint	-10.107
▁Are	-10.1071
▁sure	-10.1087
▁Midian	-10.1089
▁Balak	-10.1092
▁Bethlehem	-10.1092
▁justified	-10.1092
▁plead	-10.1092
▁record	-10.1092
▁report	-10.1092
▁roll	-10.1092
▁satisfied	-10.1092
▁strife	-10.1092
▁uncircumcised	-10.1092
▁vengeance	-10.1092
▁salt	-10.1092
▁else	-10.1092
▁Judaea	-10.1092
▁107:	-10.1093
▁ashes	-10.1093
▁sitting	-10.1094
▁armies	-10.1095
▁compassion	-10.1097
▁fatherless	-10.111
▁joined	-10.1113
▁45:1	-10.1114
▁26:4	-10.1123
▁41:2	-10.1133
▁30:3	-10.1137
▁obeyed	-10.1147
▁6:	-10.1182
▁wi	-10.1213
▁captives	-10.1217
▁shepherd	-10.1241
▁3:18	-10.1246
▁Ro	-10.1274
▁wound	-10.1297
▁49:	-10.13
▁Har	-10.1304
▁pursue	-10.1307
▁Ahaz	-10.1328
▁pot	-10.1329
▁forgiven	-10.133
▁Benaiah	-10.133
▁avenge	-10.133
▁betray	-10.133
▁finished	-10.133
▁herself	-10.133
▁latter	-10.133
▁scorn	-10.133
▁straightway	-10.133
▁writing	-10.133
▁Shimei	-10.133
▁weary	-10.133
▁sitteth	-10.1332
▁tender	-10.1334
▁Sheba	-10.1341
▁doest	-10.1346
▁changed	-10.1353
▁talked	-10.1361
▁posts	-10.1364
▁su	-10.1364
▁paths	-10.1381
▁borders	-10.143
▁seeketh	-10.1448
▁Ahi	-10.1525
▁remove	-10.1551
▁fifteen	-10.1574
▁Ethiopia	-10.1574
▁Gilgal	-10.1574
▁Shemaiah	-10.1574
▁awake	-10.1574
▁bosom	-10.1574
▁creature	-10.1574
▁forbid	-10.1574
▁grove	-10.1574
▁indignation	-10.1574
▁lack	-10.1574
▁porch	-10.1574
▁resurrection	-10.1574
▁suddenly	-10.1574
▁terror	-10.1574
▁finger	-10.1574
▁Sarah	-10.1574
▁Mo	-10.1575
▁reach	-10.1577
▁uncleanness	-10.1591
▁Can	-10.1594
▁lawful	-10.1596
▁46:1	-10.1604
▁Ah	-10.1606
▁arrows	-10.1609
▁use	-10.1609
▁39:2	-10.161
▁boards	-10.1611
▁planted	-10.1623
▁flow	-10.1624
▁declared	-10.1631
hold	-10.1669
▁walketh	-10.1691
▁continue	-10.1694
▁Red	-10.1711
▁46:	-10.1771
▁fruits	-10.1788
▁deceive	-10.1801
▁change	-10.1801
▁restore	-10.1805
▁Amaziah	-10.1824
▁Zechariah	-10.1824
▁dried	-10.1824
▁grieved	-10.1824
▁holiness	-10.1824
▁innocent	-10.1824
▁laugh	-10.1824
▁merciful	-10.1824
▁oblation	-10.1824
▁overthrow	-10.1824
▁thunder	-10.1824
▁wander	-10.1824
▁Seir	-10.1824
▁9:6	-10.1824
▁heavy	-10.1824
▁pain	-10.1824
▁Merari	-10.1825
▁appearance	-10.1826
▁strengthen	-10.1827
▁drunken	-10.1829
▁polluted	-10.183
▁beaten	-10.183
ier	-10.1832
▁exceedingly	-10.1838
▁toucheth	-10.1845
▁counted	-10.1849
▁mark	-10.1874
▁25:4	-10.1878
▁seem	-10.1894
▁possessed	-10.192
▁Ba	-10.1929
▁building	-10.1988
▁fools	-10.1991
▁horn	-10.1991
▁beat	-10.2002
▁Jew	-10.201
▁talk	-10.2047
▁wax	-10.2047
all	-10.2052
q	-10.208
▁Samson	-10.2081
▁accuse	-10.2081
▁adultery	-10.2081
▁ascend	-10.2081
▁bondage	-10.2081
▁concubine	-10.2081
▁discover	-10.2081
▁fornication	-10.2081
▁least	-10.2081
▁leprosy	-10.2081
▁molten	-10.2081
▁murmur	-10.2081
▁proclaim	-10.2081
▁room	-10.2081
▁vail	-10.2081
▁valiant	-10.2081
▁rising	-10.2081
▁short	-10.2081
▁strait	-10.2081
▁coat	-10.2081
▁7:9	-10.2081
▁bowels	-10.2081
▁base	-10.2083
▁quickly	-10.2083
▁inner	-10.2084
▁eastward	-10.2085
▁eighth	-10.2088
▁Nay	-10.2092
▁cleansed	-10.2103
▁43:1	-10.2109
▁leaven	-10.2113
▁strengthened	-10.2115
▁14:6	-10.2115
▁28:3	-10.2125
▁corners	-10.2178
▁Ai	-10.2205
▁1.	-10.2214
▁measures	-10.2242
▁2:21	-10.2259
▁ships	-10.2266
▁sayest	-10.2279
unto	-10.2291
▁letter	-10.2294
▁Heshbon	-10.2344
▁High	-10.2344
▁basket	-10.2344
▁chronicles	-10.2344
▁circumcised	-10.2344
▁confidence	-10.2344
▁descend	-10.2344
▁empty	-10.2344
▁fenced	-10.2344
▁pertain	-10.2344
▁steps	-10.2344
▁cake	-10.2344
▁digged	-10.2344
▁tithe	-10.2344
▁cave	-10.2344
▁65:	-10.2344
▁hail	-10.2347
▁means	-10.2349
ash	-10.2355
▁revealed	-10.2356
▁59:	-10.2356
▁singers	-10.2357
▁melt	-10.2358
▁needy	-10.2359
▁pursued	-10.237
▁oppressed	-10.2371
▁Hast	-10.2377
▁22:5	-10.2384
▁canst	-10.2387
▁27:4	-10.239
▁16:5	-10.2391
▁10:5	-10.2406
▁bars	-10.2411
▁21:4	-10.2422
reby	-10.2428
▁wouldest	-10.2433
▁shepherds	-10.2444
▁Oh	-10.2482
▁2:22	-10.2483
▁7:12	-10.2498
▁7:13	-10.251
▁Shem	-10.2522
▁corner	-10.2558
▁afflict	-10.2579
▁Caleb	-10.2614
▁Jehoiakim	-10.2614
▁Sihon	-10.2614
▁authority	-10.2614
▁boast	-10.2614
▁broad	-10.2614
▁caught	-10.2614
▁crucified	-10.2614
▁miracle	-10.2614
▁pronounce	-10.2614
▁sharp	-10.2614
▁tribute	-10.2614
▁understood	-10.2614
▁valour	-10.2614
▁Sinai	-10.2614
▁Tyre	-10.2614
▁spot	-10.2614
▁flame	-10.2614
▁content	-10.2614
▁9:8	-10.2614
Book	-10.2614
▁salute	-10.2614
▁row	-10.2614
▁respect	-10.2614
▁robe	-10.2614
▁Ahaziah	-10.2617
▁endure	-10.2617
▁Hamath	-10.2617
▁diligently	-10.2618
▁assembled	-10.2623
▁churches	-10.2623
▁dew	-10.2633
▁hin	-10.2636
▁prevailed	-10.2642
▁grapes	-10.2642
▁chains	-10.2645
▁lamps	-10.2645
▁waxed	-10.2649
▁receiveth	-10.2664
▁remaineth	-10.2668
▁comforted	-10.2692
▁ministered	-10.2738
ose	-10.2754
▁fro	-10.2769
▁8:12	-10.2781
▁8:10	-10.2784
▁3:19	-10.2787
▁4:18	-10.2797
▁str	-10.2798
▁street	-10.2802
▁anoint	-10.2836
▁43:	-10.2838
▁flower	-10.2839
orah	-10.2847
▁accept	-10.2857
▁9:11	-10.2869
▁thank	-10.2873
▁worketh	-10.289
rough	-10.2892
▁adversaries	-10.2892
▁barley	-10.2892
▁breach	-10.2892
▁either	-10.2892
▁fourscore	-10.2892
▁instead	-10.2892
▁nought	-10.2892
▁rebellious	-10.2892
▁recompense	-10.2892
▁solemn	-10.2892
▁testimonies	-10.2892
▁twentieth	-10.2892
▁wrong	-10.2892
▁Ramah	-10.2892
▁disease	-10.2892
▁Turn	-10.2892
▁proceed	-10.2892
▁therewith	-10.2892
▁55:	-10.2892
▁kindred	-10.2893
▁Elias	-10.2898
▁69:	-10.2899
▁fly	-10.2907
▁hearing	-10.2907
▁Persia	-10.2919
▁sealed	-10.2923
▁26:5	-10.2925
▁24:5	-10.2929
▁50:1	-10.293
▁wounded	-10.2931
▁tears	-10.2939
▁17:4	-10.2958
▁7:15	-10.3046
▁7:16	-10.3057
▁fowl	-10.3088
▁statute	-10.3088
most	-10.3114
▁1:21	-10.3138
▁stay	-10.3149
▁separate	-10.3154
▁refuse	-10.3154
▁deceit	-10.3176
▁goat	-10.3177
▁blaspheme	-10.3178
▁companion	-10.3178
▁confirm	-10.3178
▁devise	-10.3178
▁dragon	-10.3178
▁folly	-10.3178
▁ordained	-10.3178
▁precept	-10.3178
▁silence	-10.3178
▁overlaid	-10.3178
▁whereby	-10.3178
▁bake	-10.3178
▁hallow	-10.3178
▁104:	-10.3178
▁deceitful	-10.3179
▁render	-10.3183
▁68:	-10.3185
▁fruitful	-10.3187
▁sup	-10.319
▁perceived	-10.3197
▁cleanse	-10.3219
▁Whom	-10.3222
lai	-10.3228
▁10:7	-10.3251
19:8	-10.3252
▁waited	-10.3296
▁10:10	-10.3354
▁9:15	-10.3372
▁wonder	-10.3381
▁messenger	-10.3382
▁5:16	-10.3397
F	-10.3403
▁10:11	-10.3405
For	-10.3411
▁hire	-10.3448
▁line	-10.3463
▁According	-10.3472
▁Beersheba	-10.3472
▁Hilkiah	-10.3472
▁astonished	-10.3472
▁bottle	-10.3472
▁circumcision	-10.3472
▁cunning	-10.3472
▁eagle	-10.3472
▁ephah	-10.3472
▁excellent	-10.3472
▁gracious	-10.3472
▁language	-10.3472
▁ninth	-10.3472
▁patience	-10.3472
▁residue	-10.3472
▁bold	-10.3472
▁rebelled	-10.3472
▁Leah	-10.3472
▁counsellor	-10.3472
▁60:	-10.3472
▁price	-10.3473
▁reprove	-10.3473
▁jealousy	-10.3475
▁Asaph	-10.3483
▁hired	-10.3495
▁refused	-10.3496
▁transgressed	-10.3497
▁deceived	-10.3499
▁provoked	-10.3503
▁enquired	-10.3506
▁11:6	-10.3519
▁31:4	-10.3523
▁likeness	-10.3543
▁mo	-10.3555
▁letters	-10.3574
llow	-10.3575
▁sacrificed	-10.3628
▁seal	-10.3641
▁10:12	-10.365
▁Philistine	-10.3686
▁inhabitant	-10.3686
uch	-10.3696
rew	-10.3707
▁6:15	-10.371
▁exalt	-10.3742
▁Shim	-10.3763
▁continual	-10.3766
▁Carmel	-10.3775
▁Shiloh	-10.3775
▁bodies	-10.3775
▁exhort	-10.3775
▁grant	-10.3775
▁pomegranate	-10.3775
▁porters	-10.3775
▁question	-10.3775
▁reckon	-10.3775
▁recover	-10.3775
▁subject	-10.3775
▁Isaiah	-10.3775
▁ancient	-10.3775
▁clay	-10.3775
▁overcome	-10.3775
▁eighteen	-10.3775
▁hardened	-10.3775
▁Adam	-10.3775
▁hot	-10.3775
▁store	-10.3776
▁suck	-10.3776
▁deeds	-10.3776
▁instruction	-10.3777
▁fed	-10.3778
▁formed	-10.3779
▁herds	-10.3788
▁encamped	-10.3789
▁Only	-10.3793
▁separated	-10.38
▁Judas	-10.3801
▁Did	-10.3806
▁37:3	-10.3808
▁wheels	-10.3815
▁lost	-10.3815
▁11:9	-10.3823
M	-10.3826
▁ceased	-10.3829
▁17:5	-10.384
▁51:1	-10.3843
▁journeyed	-10.385
ias	-10.3854
side	-10.3871
▁Our	-10.3875
▁looketh	-10.3876
▁gavest	-10.3876
▁palaces	-10.3908
▁turneth	-10.3934
▁2:23	-10.3949
dge	-10.395
▁11:10	-10.399
▁goodly	-10.4006
▁3:21	-10.4014
tter	-10.4063
▁branch	-10.4083
▁instruct	-10.4085
▁lament	-10.4086
▁Gedaliah	-10.4087
▁While	-10.4087
▁already	-10.4087
▁due	-10.4087
▁enough	-10.4087
▁firstfruits	-10.4087
▁furnace	-10.4087
▁loaves	-10.4087
▁members	-10.4087
▁memorial	-10.4087
▁royal	-10.4087
▁tarried	-10.4087
▁truly	-10.4087
▁Micah	-10.4087
▁shoe	-10.4087
▁57:	-10.4087
▁Curse	-10.4087
▁hence	-10.4088
▁abundantly	-10.4091
▁Put	-10.41
▁inhabited	-10.4104
▁Matt	-10.4107
▁sown	-10.4108
▁loosed	-10.4108
▁43:2	-10.4113
▁girded	-10.4114
▁den	-10.4115
▁heave	-10.4117
▁49:2	-10.4118
▁26:6	-10.4127
▁14:7	-10.413
▁34:3	-10.4135
▁repented	-10.4135
▁22:6	-10.4138
▁whoredoms	-10.4146
▁greatness	-10.4196
▁males	-10.4227
▁foundations	-10.4242
▁trusted	-10.4248
▁mad	-10.4337
▁45:	-10.4356
▁Get	-10.4358
▁oppress	-10.437
▁prevail	-10.4376
▁Abiathar	-10.441
▁Ahasuerus	-10.441
▁Nebuchadrezzar	-10.441
▁breastplate	-10.441
▁business	-10.441
▁conscience	-10.441
▁defence	-10.441
▁dismayed	-10.441
▁henceforth	-10.441
▁heritage	-10.441
▁intreat	-10.441
▁ointment	-10.441
▁partaker	-10.441
▁perpetual	-10.441
▁persuade	-10.441
▁publish	-10.441
▁subdue	-10.441
▁testify	-10.441
▁double	-10.441
▁spices	-10.441
▁Zidon	-10.441
▁spiritual	-10.441
▁taste	-10.441
▁doubt	-10.441
▁upper	-10.4411
▁pasture	-10.4411
▁hateth	-10.4445
▁stayed	-10.4448
▁accepted	-10.4449
▁Lest	-10.4454
▁48:2	-10.4454
▁47:1	-10.4463
▁16:6	-10.4473
▁109:	-10.4473
▁13:7	-10.4484
▁curtains	-10.4486
▁borne	-10.4489
▁dove	-10.4495
▁answering	-10.4519
▁Here	-10.4522
▁younger	-10.4525
▁12:12	-10.4575
▁12:10	-10.4577
▁12:13	-10.4587
▁8:15	-10.46
▁Hor	-10.466
▁count	-10.4709
▁humble	-10.472
▁drunk	-10.4737
▁Caesar	-10.4742
▁Rebekah	-10.4743
▁abound	-10.4743
▁account	-10.4743
▁along	-10.4743
▁apparel	-10.4743
▁determined	-10.4743
▁drop	-10.4743
▁guide	-10.4743
▁married	-10.4743
▁nobles	-10.4743
▁overflow	-10.4743
▁swift	-10.4743
▁thanksgiving	-10.4743
▁Gershon	-10.4743
▁Hearken	-10.4743
▁Shaphan	-10.4743
▁Wilt	-10.4743
▁Lamb	-10.4743
▁calf	-10.4743
▁windows	-10.4743
▁press	-10.4743
▁soldiers	-10.4743
▁gall	-10.4743
▁63:	-10.4743
▁mention	-10.4743
▁woe	-10.4744
▁Whoso	-10.4744
▁lean	-10.4744
▁sand	-10.4744
▁Jeshua	-10.4744
▁honourable	-10.4749
▁joyful	-10.4752
▁Elam	-10.4754
▁putteth	-10.476
▁Whose	-10.4762
▁15:6	-10.4764
▁abideth	-10.4771
▁pity	-10.4776
▁knees	-10.48
▁hanged	-10.4806
▁murderer	-10.4809
▁provinces	-10.4825
▁armed	-10.4852
▁dieth	-10.486
▁calleth	-10.4878
▁crying	-10.4882
zza	-10.4971
cho	-10.4977
▁idol	-10.4999
▁disciple	-10.4999
▁perceive	-10.5065
▁fir	-10.5065
▁loose	-10.5067
▁chose	-10.508
▁bright	-10.5086
▁further	-10.5088
▁Barnabas	-10.5088
▁Jephthah	-10.5088
▁Likewise	-10.5088
▁Saviour	-10.5088
▁altogether	-10.5088
▁brasen	-10.5088
▁chapiter	-10.5088
▁creeping	-10.5088
▁cross	-10.5088
▁dumb	-10.5088
▁electronic	-10.5088
▁hungry	-10.5088
▁proverb	-10.5088
▁provide	-10.5088
▁stumble	-10.5088
▁whirlwind	-10.5088
▁Joram	-10.5088
▁Tell	-10.5088
▁depth	-10.5088
▁merry	-10.5088
▁forbear	-10.5088
▁wholly	-10.5088
▁punishment	-10.5089
▁Hananiah	-10.509
▁Nun	-10.509
▁rejected	-10.5093
▁Min	-10.5106
▁humbled	-10.5112
▁46:2	-10.512
▁merchants	-10.5131
▁continued	-10.5133
▁28:4	-10.5147
▁singing	-10.5171
▁bar	-10.5238
▁Levite	-10.5356
C	-10.538
tions	-10.5394
▁offend	-10.5412
▁lovingkindness	-10.5433
▁cherub	-10.5445
▁Baasha	-10.5445
▁Nazareth	-10.5445
▁Peace	-10.5445
▁bottom	-10.5445
▁dung	-10.5445
▁glorify	-10.5445
▁locust	-10.5445
▁making	-10.5445
▁perverse	-10.5445
▁purge	-10.5445
▁thief	-10.5445
▁Amnon	-10.5445
▁grew	-10.5445
▁steal	-10.5445
▁beneath	-10.5445
▁Ezra	-10.5445
▁begin	-10.5446
▁uttermost	-10.5446
▁lamentation	-10.5447
▁deny	-10.5453
▁stir	-10.546
▁drawn	-10.5471
▁obtained	-10.5472
▁sort	-10.5473
▁anointing	-10.5475
▁32:4	-10.5492
▁40:3	-10.5492
▁24:6	-10.5496
▁33:3	-10.5515
▁Ash	-10.5553
ipped	-10.5582
▁Ner	-10.5674
▁province	-10.5725
▁Egyptian	-10.5726
place	-10.5751
▁join	-10.5782
▁Amalek	-10.5812
▁Hanan	-10.5813
ift	-10.5814
▁lame	-10.5815
▁Macedonia	-10.5815
▁colour	-10.5815
▁consecrate	-10.5815
▁custom	-10.5815
▁elect	-10.5815
▁eunuch	-10.5815
▁grief	-10.5815
▁hunger	-10.5815
▁liberty	-10.5815
▁maidservant	-10.5815
▁majesty	-10.5815
▁pool	-10.5815
▁principal	-10.5815
▁quench	-10.5815
▁shittim	-10.5815
▁straight	-10.5815
▁trodden	-10.5815
▁ungodly	-10.5815
▁fault	-10.5815
▁space	-10.5815
▁sail	-10.5815
▁summer	-10.5815
▁Cain	-10.5815
▁Johanan	-10.5816
▁lightning	-10.5817
▁armour	-10.5818
zziah	-10.5818
▁justice	-10.5818
▁oppression	-10.5818
raw	-10.5819
▁Shallum	-10.582
▁fishes	-10.5823
▁Ammonites	-10.5827
▁isles	-10.5827
▁restored	-10.5851
▁touching	-10.5853
▁covereth	-10.5877
▁23:5	-10.588
▁workers	-10.5892
out	-10.5903
▁15:	-10.6004
▁fr	-10.608
▁curtain	-10.611
L	-10.6135
D	-10.6135
▁gird	-10.6162
▁transgress	-10.6164
▁abhor	-10.6199
▁19:5	-10.62
▁Adonijah	-10.62
▁Baruch	-10.62
▁Greek	-10.62
▁Notwithstanding	-10.62
▁Zeruiah	-10.62
▁black	-10.62
▁charity	-10.62
▁coals	-10.62
▁confusion	-10.62
▁cords	-10.62
▁device	-10.62
▁evermore	-10.62
▁excellency	-10.62
▁forsook	-10.62
▁giving	-10.62
▁guilty	-10.62
▁incline	-10.62
▁nevertheless	-10.62
▁plow	-10.62
▁purify	-10.62
▁rejoicing	-10.62
▁request	-10.62
▁sack	-10.62
▁separation	-10.62
▁shoot	-10.62
▁smell	-10.62
▁testified	-10.62
▁thirteen	-10.62
▁timber	-10.62
▁trembling	-10.62
▁worse	-10.62
▁zeal	-10.62
▁courage	-10.62
▁moreover	-10.62
▁highway	-10.62
▁offence	-10.62
▁running	-10.62
▁wealth	-10.62
▁repentance	-10.6202
▁Call	-10.6203
▁whithersoever	-10.6203
▁westward	-10.6203
▁state	-10.6207
▁pan	-10.6208
▁wit	-10.6212
▁accomplished	-10.6219
▁15:8	-10.6225
▁kissed	-10.6227
▁45:2	-10.6228
▁42:2	-10.6246
▁preaching	-10.6255
▁27:5	-10.6261
▁whereon	-10.6264
▁Hath	-10.6274
gers	-10.6322
▁howl	-10.6527
▁bough	-10.6588
▁interpret	-10.6598
▁Abishai	-10.66
▁Benhadad	-10.66
▁Darius	-10.66
▁Hivite	-10.66
▁Maaseiah	-10.66
▁Meshullam	-10.66
▁Phinehas	-10.66
▁Rejoice	-10.66
▁approach	-10.66
▁chasten	-10.66
▁commune	-10.66
▁contend	-10.66
▁council	-10.66
▁envy	-10.66
▁equal	-10.66
▁fashion	-10.66
▁gotten	-10.66
▁jewels	-10.66
▁marvellous	-10.66
▁occasion	-10.66
▁prolong	-10.66
▁prudent	-10.66
▁release	-10.66
▁somewhat	-10.66
▁tribulation	-10.66
▁void	-10.66
▁Arnon	-10.66
▁Nebat	-10.66
▁cruel	-10.66
▁clear	-10.66
▁shave	-10.66
▁fulness	-10.66
▁56:	-10.66
▁snow	-10.6602
▁willingly	-10.6603
▁displeased	-10.6604
▁withered	-10.6609
▁Moabites	-10.6622
▁58:	-10.6626
▁seemeth	-10.6631
▁tempted	-10.6632
▁offended	-10.6638
▁18:5	-10.6641
▁50:2	-10.6643
▁rebuked	-10.665
▁Doth	-10.6654
▁lose	-10.666
▁28:5	-10.6662
▁Out	-10.6664
▁desir	-10.6692
▁path	-10.6928
▁Man	-10.693
▁tempt	-10.6982
▁copy	-10.7017
▁fulfil	-10.7017
▁agree	-10.7017
mission	-10.7017
▁19:6	-10.7017
▁Boaz	-10.7017
▁Deliver	-10.7017
▁Ekron	-10.7017
▁Foundation	-10.7017
▁Grace	-10.7017
▁Lachish	-10.7017
▁Tarshish	-10.7017
▁begotten	-10.7017
▁bridegroom	-10.7017
▁centurion	-10.7017
▁common	-10.7017
▁contrary	-10.7017
▁couple	-10.7017
▁craft	-10.7017
▁discern	-10.7017
▁enlarge	-10.7017
▁estimation	-10.7017
▁fame	-10.7017
▁female	-10.7017
▁forehead	-10.7017
▁kine	-10.7017
▁marry	-10.7017
▁pledge	-10.7017
▁sixteen	-10.7017
▁thigh	-10.7017
▁barren	-10.7017
▁spoon	-10.7017
▁strive	-10.7017
▁Jotham	-10.7017
▁apart	-10.7017
▁ninety	-10.7017
▁self	-10.7017
▁stream	-10.7017
▁Tamar	-10.7017
▁139:	-10.7017
▁Abel	-10.7017
▁bald	-10.7017
▁usury	-10.7017
▁62:	-10.7017
▁54:	-10.7017
▁71:	-10.7017
▁hole	-10.7017
▁Send	-10.7017
▁temptation	-10.7018
▁froward	-10.7018
▁wonderful	-10.7019
▁quicken	-10.7019
▁Zerah	-10.702
▁Amalekites	-10.702
▁dogs	-10.7021
▁Midianites	-10.7022
▁northward	-10.7023
ities	-10.7024
▁sickness	-10.7032
▁dedicated	-10.7039
▁15:9	-10.7043
▁18:6	-10.7062
▁18:7	-10.7063
rang	-10.7192
▁alway	-10.7362
▁obtain	-10.7418
▁Cyrus	-10.7451
▁Hazael	-10.7451
▁Hiram	-10.7451
▁Jehoahaz	-10.7451
▁Jehoram	-10.7451
▁Jezebel	-10.7451
▁Mizpah	-10.7451
▁Mizpeh	-10.7451
▁Perizzite	-10.7451
▁THE	-10.7451
▁abominable	-10.7451
▁baptism	-10.7451
▁division	-10.7451
▁effect	-10.7451
▁feeble	-10.7451
▁pull	-10.7451
▁robber	-10.7451
▁stedfast	-10.7451
▁twelfth	-10.7451
▁Look	-10.7451
▁Machir	-10.7451
▁choice	-10.7451
▁marvelled	-10.7451
▁reconcil	-10.7451
▁blew	-10.7452
▁hunt	-10.7452
▁leper	-10.7452
▁suppos	-10.7452
▁94:	-10.7452
▁74:	-10.7452
▁agreement	-10.7452
▁stirred	-10.7453
▁hinder	-10.7453
▁whoso	-10.7453
▁acceptable	-10.7453
▁treacherously	-10.7455
aint	-10.7456
▁Your	-10.7458
▁southward	-10.7459
▁besieged	-10.7463
▁lovers	-10.7465
▁grown	-10.7472
▁whereas	-10.7483
▁move	-10.7485
▁Bo	-10.7492
▁Bu	-10.7499
▁dear	-10.7503
ntil	-10.7658
▁apostle	-10.7817
upon	-10.7842
▁fee	-10.7872
▁kindle	-10.7902
Y	-10.7906
▁happen	-10.7906
▁Ashdod	-10.7906
▁Naboth	-10.7906
▁Tyrus	-10.7906
▁Zerubbabel	-10.7906
▁adversary	-10.7906
▁astray	-10.7906
▁chastise	-10.7906
▁covet	-10.7906
▁glean	-10.7906
▁jubile	-10.7906
▁large	-10.7906
▁merchandise	-10.7906
▁ministry	-10.7906
▁recompence	-10.7906
▁roof	-10.7906
▁tempest	-10.7906
▁tumult	-10.7906
▁victual	-10.7906
▁worm	-10.7906
▁Nabal	-10.7906
▁Stand	-10.7906
▁lend	-10.7906
▁vile	-10.7906
▁Thine	-10.7906
▁pervert	-10.7906
▁consent	-10.7906
▁Cast	-10.7906
▁standard	-10.7906
▁64:	-10.7906
▁sinneth	-10.7906
▁torment	-10.7907
▁moment	-10.7907
▁103:	-10.7908
▁potter	-10.7909
Before	-10.7909
▁token	-10.791
▁brightness	-10.7911
▁oppressor	-10.7912
▁Many	-10.7914
▁bitterness	-10.7914
▁sum	-10.792
▁Joel	-10.7923
▁shaken	-10.7925
riel	-10.797
▁whoredom	-10.8292
▁sinner	-10.8293
scribe	-10.8318
ship	-10.8321
▁kiss	-10.8349
melech	-10.8381
pistle	-10.8382
▁correct	-10.8382
▁dig	-10.8382
▁135:	-10.8382
▁145:	-10.8382
▁Bethshemesh	-10.8382
▁Elkanah	-10.8382
▁Esaias	-10.8382
▁Euphrates	-10.8382
▁Ithamar	-10.8382
▁Naomi	-10.8382
▁Obadiah	-10.8382
▁Shushan	-10.8382
▁Sisera	-10.8382
▁acknowledge	-10.8382
▁amazed	-10.8382
▁astonishment	-10.8382
▁distribute	-10.8382
▁flatter	-10.8382
▁giant	-10.8382
▁groan	-10.8382
▁ignorant	-10.8382
▁leap	-10.8382
▁magnified	-10.8382
▁marriage	-10.8382
▁middle	-10.8382
▁mystery	-10.8382
▁oak	-10.8382
▁ornament	-10.8382
▁parents	-10.8382
▁prophecy	-10.8382
▁twined	-10.8382
▁Achish	-10.8382
▁asunder	-10.8382
▁oracle	-10.8382
▁peradventure	-10.8382
▁boil	-10.8382
▁Tru	-10.8382
▁Amasa	-10.8382
▁fit	-10.8383
▁mule	-10.8383
▁liar	-10.8383
▁ease	-10.8383
tify	-10.8383
▁unrighteousness	-10.8384
▁straw	-10.8384
▁Mahl	-10.8385
▁stick	-10.8387
▁corruption	-10.8388
▁safely	-10.8389
▁husbandmen	-10.8389
▁servi	-10.839
▁Eliab	-10.8392
tip	-10.8393
▁Asia	-10.8396
shua	-10.856
▁elder	-10.8793
▁band	-10.8798
▁Set	-10.8847
▁gat	-10.8864
▁weari	-10.8876
▁147:	-10.8882
▁Abijah	-10.8882
▁Ahijah	-10.8882
▁Ahikam	-10.8882
▁Ahithophel	-10.8882
▁Nethaniah	-10.8882
▁Obededom	-10.8882
▁Return	-10.8882
▁Seraiah	-10.8882
▁accursed	-10.8882
▁aloud	-10.8882
▁beautiful	-10.8882
▁blot	-10.8882
▁commend	-10.8882
▁conversation	-10.8882
▁direct	-10.8882
▁esteem	-10.8882
▁fiery	-10.8882
▁garrison	-10.8882
▁imagination	-10.8882
▁laver	-10.8882
▁overtake	-10.8882
▁rage	-10.8882
▁redemption	-10.8882
▁ruin	-10.8882
▁simple	-10.8882
▁swine	-10.8882
▁taking	-10.8882
▁troop	-10.8882
▁violent	-10.8882
▁Hezron	-10.8882
▁Nadab	-10.8882
▁censer	-10.8882
▁floor	-10.8882
▁steward	-10.8882
▁wool	-10.8882
▁transgressors	-10.8882
▁tried	-10.8882
▁Gaza	-10.8882
▁harm	-10.8882
▁Eden	-10.8882
▁qua	-10.8882
▁72:	-10.8882
▁77:	-10.8882
▁term	-10.8883
▁heifer	-10.8883
▁dance	-10.8883
▁hypocrites	-10.8885
▁Jonah	-10.8885
ible	-10.9062
▁close	-10.9291
▁knee	-10.9318
▁tear	-10.9319
▁bone	-10.9319
▁sigh	-10.9397
▁rend	-10.9398
▁jealous	-10.9402
▁Antioch	-10.9409
▁Gomorrah	-10.9409
▁Ramothgilead	-10.9409
▁Sidon	-10.9409
▁Succoth	-10.9409
▁Whither	-10.9409
▁calamity	-10.9409
▁conspired	-10.9409
▁convocation	-10.9409
▁covetousness	-10.9409
▁divine	-10.9409
▁drank	-10.9409
▁dress	-10.9409
▁earthquake	-10.9409
▁familiar	-10.9409
▁ghost	-10.9409
▁knop	-10.9409
▁league	-10.9409
▁magnify	-10.9409
▁pardon	-10.9409
▁raven	-10.9409
▁skirt	-10.9409
▁thresh	-10.9409
▁threshingfloor	-10.9409
▁unjust	-10.9409
▁legs	-10.9409
▁safety	-10.9409
▁speedily	-10.9409
▁Hazor	-10.9409
▁region	-10.9409
irjath	-10.9409
▁bank	-10.9409
▁nourish	-10.9409
▁Teman	-10.9409
▁darkened	-10.9409
▁rebel	-10.9409
▁befall	-10.9409
▁denied	-10.9409
▁nail	-10.9409
▁estate	-10.9409
▁61:	-10.9409
▁whoring	-10.941
▁bathe	-10.9411
▁committeth	-10.9411
▁nest	-10.9411
▁thrown	-10.9413
▁flourish	-10.9413
▁wide	-10.9415
▁spent	-10.9418
beit	-10.9419
▁Haran	-10.942
▁Gera	-10.9437
▁Bless	-10.9938
▁accord	-10.9942
xcept	-10.9964
irjathjearim	-10.9964
obedience	-10.9964
▁Jehiel	-10.9964
▁Libnah	-10.9964
▁Maachah	-10.9964
▁Manoah	-10.9964
▁Micaiah	-10.9964
▁Nethinims	-10.9964
▁Nineveh	-10.9964
▁Tirzah	-10.9964
▁armourbearer	-10.9964
▁basons	-10.9964
▁blast	-10.9964
▁bruise	-10.9964
▁calves	-10.9964
▁consolation	-10.9964
▁exercise	-10.9964
▁hoof	-10.9964
▁hooks	-10.9964
▁ignorance	-10.9964
▁kidneys	-10.9964
▁prevent	-10.9964
▁scourge	-10.9964
▁shewbread	-10.9964
▁stricken	-10.9964
▁stubble	-10.9964
▁wages	-10.9964
▁winepress	-10.9964
▁Cush	-10.9964
▁balance	-10.9964
▁catch	-10.9964
▁storm	-10.9964
▁birth	-10.9964
▁colt	-10.9964
▁Asahel	-10.9964
▁cock	-10.9964
▁bush	-10.9964
▁cold	-10.9964
▁Omri	-10.9964
adesh	-10.9964
▁debt	-10.9964
▁fastened	-10.9964
▁maidens	-10.9964
eilah	-10.9964
▁53:	-10.9964
▁bid	-10.9964
zziel	-10.9967
▁herbs	-10.9971
▁axe	-10.9971
▁try	-10.9971
▁sorrowful	-10.9973
▁backward	-10.9975
▁Arabia	-10.9983
▁Whe	-11.0086
▁spit	-11.0374
▁board	-11.0463
▁uncle	-11.0547
hanan	-11.0552
▁public	-11.0552
▁poll	-11.0552
square	-11.0552
▁Abigail	-11.0552
▁Athaliah	-11.0552
▁Depart	-11.0552
▁Eliashib	-11.0552
▁Ephesus	-11.0552
▁Jehoash	-11.0552
▁Should	-11.0552
▁Timotheus	-11.0552
▁anguish	-11.0552
▁bride	-11.0552
▁companies	-11.0552
▁complain	-11.0552
▁contain	-11.0552
▁dread	-11.0552
▁filthy	-11.0552
▁firmament	-11.0552
▁fortress	-11.0552
▁frankincense	-11.0552
▁freewill	-11.0552
▁happy	-11.0552
▁hatred	-11.0552
▁insomuch	-11.0552
▁kinsman	-11.0552
▁lewdness	-11.0552
▁myrrh	-11.0552
▁purchase	-11.0552
▁reproof	-11.0552
▁revenge	-11.0552
▁rush	-11.0552
▁shore	-11.0552
▁siege	-11.0552
▁stablish	-11.0552
▁stature	-11.0552
▁threshold	-11.0552
▁twain	-11.0552
▁twice	-11.0552
▁Naaman	-11.0552
▁Rechab	-11.0552
▁shot	-11.0552
▁stock	-11.0552
▁strike	-11.0552
▁Belial	-11.0552
▁quarter	-11.0552
▁Amram	-11.0552
▁Horeb	-11.0552
▁Nahor	-11.0552
▁Shoba	-11.0552
▁disperse	-11.0552
▁roe	-11.0552
▁Aroer	-11.0552
▁Sarai	-11.0552
▁publicans	-11.0552
▁crieth	-11.0552
▁cheer	-11.0552
▁hidden	-11.0552
▁bud	-11.0552
▁candle	-11.0552
▁90:	-11.0553
▁86:	-11.0553
▁settle	-11.0553
▁fellowship	-11.0553
▁Caesarea	-11.0554
▁hewn	-11.0554
▁stripes	-11.0555
▁bondmen	-11.0556
▁prosperity	-11.0556
▁torn	-11.056
loved	-11.1043
▁arrow	-11.1088
▁post	-11.1088
▁inhabit	-11.1143
▁dedicat	-11.1144
▁repair	-11.1144
alute	-11.1177
lthough	-11.1177
temper	-11.1177
▁Anathoth	-11.1177
▁Apostle	-11.1177
▁Benjamite	-11.1177
▁Capernaum	-11.1177
▁Jephunneh	-11.1177
▁Mattaniah	-11.1177
▁Rabshakeh	-11.1177
▁Rimmon	-11.1177
▁Seven	-11.1177
▁attain	-11.1177
▁backsliding	-11.1177
▁banquet	-11.1177
▁betwixt	-11.1177
▁buckler	-11.1177
▁cymbals	-11.1177
▁degree	-11.1177
▁filthiness	-11.1177
▁footstool	-11.1177
▁imagine	-11.1177
▁integrity	-11.1177
▁longsuffering	-11.1177
▁obedient	-11.1177
▁refresh	-11.1177
▁renew	-11.1177
▁reserved	-11.1177
▁retain	-11.1177
▁seventeen	-11.1177
▁slothful	-11.1177
▁slow	-11.1177
▁stuff	-11.1177
▁surname	-11.1177
▁thieves	-11.1177
▁unbelief	-11.1177
▁winter	-11.1177
▁Amariah	-11.1177
▁compar	-11.1177
▁priesthood	-11.1177
▁tail	-11.1177
▁Rise	-11.1177
▁nether	-11.1177
▁Alas	-11.1177
▁ransom	-11.1177
▁Hagar	-11.1177
▁asleep	-11.1177
▁sixty	-11.1177
▁epistle	-11.1177
▁island	-11.1177
▁withdraw	-11.1178
▁91:	-11.1178
▁behave	-11.1178
▁owl	-11.1178
▁Ahimelech	-11.1178
▁nay	-11.1178
▁abhorred	-11.1179
closed	-11.132
getteth	-11.153
enaz	-11.1663
▁market	-11.171
▁wheel	-11.1754
▁wing	-11.1759
same	-11.1784
▁accomplish	-11.1811
▁diligent	-11.1834
▁Zer	-11.1839
▁144:	-11.1844
▁Abednego	-11.1844
▁Ahimaaz	-11.1844
▁Ahitub	-11.1844
▁Artaxerxes	-11.1844
▁Baptist	-11.1844
▁Concerning	-11.1844
▁Eliakim	-11.1844
▁Eliezer	-11.1844
▁Eliphaz	-11.1844
▁Hashabiah	-11.1844
▁Lazarus	-11.1844
▁Mephibosheth	-11.1844
▁Meshach	-11.1844
▁Nebuzaradan	-11.1844
▁Shadrach	-11.1844
▁Ziklag	-11.1844
▁access	-11.1844
▁affect	-11.1844
▁arches	-11.1844
▁blameless	-11.1844
▁brimstone	-11.1844
▁carnal	-11.1844
▁chamberlain	-11.1844
▁contempt	-11.1844
▁derision	-11.1844
▁enjoy	-11.1844
▁genealogy	-11.1844
▁godliness	-11.1844
▁magicians	-11.1844
▁natural	-11.1844
▁nostrils	-11.1844
▁patient	-11.1844
▁pattern	-11.1844
▁petition	-11.1844
▁pipe	-11.1844
▁possible	-11.1844
▁privily	-11.1844
▁promot	-11.1844
▁refrain	-11.1844
▁sceptre	-11.1844
▁uncircumcision	-11.1844
▁wailing	-11.1844
▁wondrous	-11.1844
▁Geshur	-11.1844
▁Great	-11.1844
▁Jahaz	-11.1844
▁Miriam	-11.1844
▁Zimri	-11.1844
▁dishonour	-11.1844
▁languish	-11.1844
▁pound	-11.1844
▁resist	-11.1844
▁rot	-11.1844
▁tax	-11.1844
▁Tobiah	-11.1844
▁Goshen	-11.1844
▁Hazar	-11.1844
▁stopped	-11.1844
▁mirth	-11.1844
▁deaf	-11.1844
▁entry	-11.1844
▁overlay	-11.1844
▁sentence	-11.1844
▁Hold	-11.1844
▁locks	-11.1844
▁mire	-11.1844
▁convert	-11.1844
▁cart	-11.1844
▁92:	-11.1844
▁cost	-11.1844
▁reins	-11.1844
▁Heber	-11.1845
▁sober	-11.1845
smith	-11.1845
▁Bani	-11.1846
mmah	-11.1863
rob	-11.1929
▁ago	-11.1976
gla	-11.2011
areah	-11.2314
▁Bela	-11.2403
▁merchant	-11.2468
▁talent	-11.2469
▁Amorite	-11.2469
B	-11.2494
▁encamp	-11.2525
▁reveal	-11.2525
▁assemble	-11.2535
▁conceive	-11.2535
▁You	-11.2547
▁safe	-11.2548
▁Consider	-11.2558
▁diminish	-11.2558
▁persecution	-11.2558
▁plenteous	-11.2558
rijah	-11.2558
▁Awake	-11.2558
▁Barak	-11.2558
▁Bethhoron	-11.2558
▁Beware	-11.2558
▁Chaldees	-11.2558
▁Debir	-11.2558
▁Gershom	-11.2558
▁Hushai	-11.2558
▁Jeduthun	-11.2558
▁Jerubbaal	-11.2558
▁Nethaneel	-11.2558
▁Pashur	-11.2558
▁Sadducees	-11.2558
▁bestowed	-11.2558
▁beware	-11.2558
▁blasphemy	-11.2558
▁borrow	-11.2558
▁chaff	-11.2558
▁clave	-11.2558
▁crooked	-11.2558
▁defend	-11.2558
▁eldest	-11.2558
▁expectation	-11.2558
▁falsehood	-11.2558
▁foreskin	-11.2558
▁gnash	-11.2558
▁idle	-11.2558
▁manservant	-11.2558
▁midnight	-11.2558
▁poverty	-11.2558
▁psalm	-11.2558
▁psalteries	-11.2558
▁reverence	-11.2558
▁revive	-11.2558
▁revolt	-11.2558
▁scall	-11.2558
▁stoop	-11.2558
▁testament	-11.2558
▁triumph	-11.2558
▁wrapped	-11.2558
meditate	-11.2558
▁Pekah	-11.2558
▁Rehob	-11.2558
▁Titus	-11.2558
▁cheek	-11.2558
helemiah	-11.2558
▁Iddo	-11.2558
▁bidden	-11.2558
▁couch	-11.2558
▁Six	-11.2558
▁alms	-11.2558
▁supper	-11.2558
▁surety	-11.2558
▁Geba	-11.2558
▁Ruth	-11.2558
▁sorry	-11.2558
▁Medes	-11.2558
▁148:	-11.2558
▁housetop	-11.2558
▁frogs	-11.2558
eneral	-11.2559
▁dash	-11.2559
▁bag	-11.2559
▁mantle	-11.2559
▁wipe	-11.258
▁slip	-11.2591
▁murder	-11.3175
▁lamp	-11.3238
▁chain	-11.3238
▁Pharisee	-11.3238
▁abundant	-11.3318
▁hypocrit	-11.3323
tretch	-11.3327
special	-11.3328
▁140:	-11.3328
▁Abinadab	-11.3328
▁Agag	-11.3328
▁Amminadab	-11.3328
▁Archive	-11.3328
▁Dagon	-11.3328
▁Eglon	-11.3328
▁Gezer	-11.3328
▁Hinnom	-11.3328
▁Jedaiah	-11.3328
▁Judge	-11.3328
▁Literary	-11.3328
▁Mahanaim	-11.3328
▁Martha	-11.3328
▁Olives	-11.3328
▁Rabbah	-11.3328
▁Remaliah	-11.3328
▁Sennacherib	-11.3328
▁behalf	-11.3328
▁carpenter	-11.3328
▁carved	-11.3328
▁consecration	-11.3328
▁controversy	-11.3328
▁difference	-11.3328
▁disobedient	-11.3328
▁divination	-11.3328
▁drave	-11.3328
▁drove	-11.3328
▁embrace	-11.3328
▁enchantment	-11.3328
▁heaviness	-11.3328
▁ivory	-11.3328
▁loops	-11.3328
▁maintain	-11.3328
▁narrow	-11.3328
▁necessit	-11.3328
▁otherwise	-11.3328
▁paragraph	-11.3328
▁pierce	-11.3328
▁plenty	-11.3328
▁provision	-11.3328
▁psaltery	-11.3328
▁robbed	-11.3328
▁slumber	-11.3328
▁strove	-11.3328
▁submit	-11.3328
▁swell	-11.3328
▁thrice	-11.3328
▁tradition	-11.3328
▁vanities	-11.3328
▁vial	-11.3328
▁Amoz	-11.3328
▁Hannah	-11.3328
▁cursing	-11.3328
▁greet	-11.3328
▁jaw	-11.3328
▁justify	-11.3328
▁mitre	-11.3328
▁palsy	-11.3328
▁quit	-11.3328
repare	-11.3328
▁Festus	-11.3328
▁Joppa	-11.3328
▁Silas	-11.3328
▁dungeon	-11.3328
▁caul	-11.3328
▁Ophir	-11.3328
▁meekness	-11.3328
copyright	-11.3328
▁bereave	-11.3328
▁Eber	-11.3328
▁85:	-11.3328
▁96:	-11.3328
▁tale	-11.3328
▁overseer	-11.3331
▁Phi	-11.3332
▁exact	-11.3333
chased	-11.3334
▁dip	-11.3354
▁79:	-11.3388
▁fillet	-11.3946
hearted	-11.3982
▁grape	-11.4071
zzi	-11.4072
▁baptize	-11.4138
rethren	-11.4159
▁snuff	-11.4161
▁Nazarite	-11.4161
▁ambassador	-11.4161
▁fiftie	-11.4161
▁similitude	-11.4161
▁stroke	-11.4161
▁value	-11.4161
▁143:	-11.4161
▁Agrippa	-11.4161
▁Barzillai	-11.4161
▁Gehazi	-11.4161
▁Hadarezer	-11.4161
▁Haggai	-11.4161
▁Ishbosheth	-11.4161
▁Jabesh	-11.4161
▁Jabeshgilead	-11.4161
▁Jonadab	-11.4161
▁Lamech	-11.4161
▁Magdalene	-11.4161
▁Megiddo	-11.4161
▁Pharez	-11.4161
▁Shephatiah	-11.4161
▁Thomas	-11.4161
▁Zalmunna	-11.4161
▁Zebah	-11.4161
▁Zebedee	-11.4161
▁archers	-11.4161
▁audience	-11.4161
▁cluster	-11.4161
▁donations	-11.4161
▁entrance	-11.4161
▁evildoers	-11.4161
▁hyssop	-11.4161
▁infirmities	-11.4161
▁nature	-11.4161
▁nurse	-11.4161
▁offspring	-11.4161
▁point	-11.4161
▁rumour	-11.4161
▁sapphire	-11.4161
▁satisfy	-11.4161
▁shook	-11.4161
▁stumblingblock	-11.4161
▁unawares	-11.4161
▁victory	-11.4161
▁Enoch	-11.4161
▁Zichri	-11.4161
▁saving	-11.4161
▁subtil	-11.4161
▁Ornan	-11.4161
▁overthrew	-11.4161
▁Pray	-11.4161
▁briers	-11.4161
▁chew	-11.4161
▁stamp	-11.4161
▁stop	-11.4161
▁Jonas	-11.4161
▁signet	-11.4161
▁Dedan	-11.4161
▁speed	-11.4161
▁Ebed	-11.4161
▁lice	-11.4162
corruptible	-11.4243
emuel	-11.4512
▁strip	-11.4645
G	-11.5005
chamber	-11.5005
W	-11.5005
P	-11.5005
▁besiege	-11.5046
▁pollute	-11.5047
divid	-11.5049
▁quick	-11.5054
▁worth	-11.5063
eradventure	-11.507
▁bridle	-11.507
▁decline	-11.507
▁suffice	-11.507
▁wake	-11.507
▁78:1	-11.507
▁78:2	-11.507
▁78:3	-11.507
▁78:4	-11.507
▁78:5	-11.507
▁78:6	-11.507
▁89:1	-11.507
▁89:2	-11.507
▁89:3	-11.507
▁89:4	-11.507
▁Achaia	-11.507
▁Adullam	-11.507
▁Ananias	-11.507
▁Ashtaroth	-11.507
▁Barabbas	-11.507
▁Bilhah	-11.507
▁Declar	-11.507
▁Follow	-11.507
▁Hoshea	-11.507
▁Iscariot	-11.507
▁Jehoiachin	-11.507
▁Milcah	-11.507
▁Prophesy	-11.507
▁Riblah	-11.507
▁Zacharias	-11.507
▁Zelophehad	-11.507
▁Zephaniah	-11.507
▁Zobah	-11.507
▁acquaintance	-11.507
▁ambush	-11.507
▁apple	-11.507
▁brutish	-11.507
▁coupling	-11.507
▁crush	-11.507
▁curious	-11.507
▁damnation	-11.507
▁delicate	-11.507
▁engrav	-11.507
▁fetters	-11.507
▁flax	-11.507
▁grind	-11.507
▁guile	-11.507
▁honest	-11.507
▁includ	-11.507
▁leaf	-11.507
▁measuring	-11.507
▁millstone	-11.507
▁morsel	-11.507
▁network	-11.507
▁penny	-11.507
▁physician	-11.507
▁profess	-11.507
▁provocation	-11.507
▁push	-11.507
▁renown	-11.507
▁requite	-11.507
▁revelation	-11.507
▁shining	-11.507
▁speckled	-11.507
▁unpunished	-11.507
▁wreathe	-11.507
▁119:2	-11.507
▁119:5	-11.507
▁Dibon	-11.507
▁Watch	-11.507
▁absent	-11.507
▁119:3	-11.507
▁119:4	-11.507
▁119:6	-11.507
▁First	-11.507
▁Hanun	-11.507
▁Rezin	-11.507
▁morter	-11.507
▁sang	-11.507
isdom	-11.507
▁Abiram	-11.507
▁Bethany	-11.507
▁Write	-11.507
▁utmost	-11.507
altiel	-11.507
▁drunkard	-11.507
▁stink	-11.507
▁Jazer	-11.507
▁Japheth	-11.507
▁Paran	-11.507
▁forgave	-11.507
▁runneth	-11.507
▁alike	-11.507
idron	-11.507
▁Terah	-11.507
▁spend	-11.507
▁halt	-11.5071
buk	-11.5073
ould	-11.5078
▁frame	-11.5078
kku	-11.5094
espite	-11.5103
▁continu	-11.5444
▁Juda	-11.5975
▁village	-11.5981
▁unrighteous	-11.6066
spect	-11.6068
econd	-11.6069
▁marvel	-11.607
adeshbarnea	-11.607
▁141:	-11.607
▁146:	-11.607
▁Ammihud	-11.607
▁Apollos	-11.607
▁Arphaxad	-11.607
▁Bathsheba	-11.607
▁Belteshazzar	-11.607
▁Berechiah	-11.607
▁Bethlehemjudah	-11.607
▁Corinth	-11.607
▁Cornelius	-11.607
▁Deborah	-11.607
▁Furthermore	-11.607
▁Gittite	-11.607
▁Greet	-11.607
▁Immer	-11.607
▁Jeroham	-11.607
▁Jethro	-11.607
▁Netophathite	-11.607
▁Padanaram	-11.607
▁Remove	-11.607
▁Samaritan	-11.607
▁Sanballat	-11.607
▁States	-11.607
▁Zippor	-11.607
▁Zoar	-11.607
▁accusation	-11.607
▁adversity	-11.607
▁alarm	-11.607
▁astonied	-11.607
▁bewail	-11.607
▁birthright	-11.607
▁bracelets	-11.607
▁bulls	-11.607
▁conspiracy	-11.607
▁constrain	-11.607
▁convenient	-11.607
▁copie	-11.607
▁damage	-11.607
▁diligence	-11.607
▁equity	-11.607
▁express	-11.607
▁famous	-11.607
▁fellowservant	-11.607
▁forefront	-11.607
▁furnish	-11.607
▁grasshopper	-11.607
▁greed	-11.607
▁guiltless	-11.607
▁hammer	-11.607
▁haughty	-11.607
▁helmet	-11.607
▁hereafter	-11.607
▁infirmity	-11.607
▁intercession	-11.607
▁knock	-11.607
▁lake	-11.607
▁liberal	-11.607
▁lilies	-11.607
▁magistrate	-11.607
▁menservants	-11.607
▁notwithstanding	-11.607
▁overtook	-11.607
▁paid	-11.607
▁parch	-11.607
▁preparation	-11.607
▁roast	-11.607
▁saddled	-11.607
▁saviour	-11.607
▁scales	-11.607
▁secure	-11.607
▁shovel	-11.607
▁slander	-11.607
▁stairs	-11.607
▁sunrising	-11.607
▁taches	-11.607
▁timbrel	-11.607
▁treasuries	-11.607
▁turtledove	-11.607
▁view	-11.607
▁vintage	-11.607
▁vomit	-11.607
▁wrest	-11.607
▁Baanah	-11.607
▁Dathan	-11.607
▁Jerahmeel	-11.607
▁Mushi	-11.607
▁Rahab	-11.607
▁conceal	-11.607
▁glass	-11.607
▁scab	-11.607
▁Bethuel	-11.607
▁Millo	-11.607
▁Reuel	-11.607
▁Tubal	-11.607
▁forthwith	-11.607
▁Tabor	-11.607
▁repay	-11.607
▁Mamre	-11.607
▁Adoni	-11.607
▁burst	-11.607
▁fret	-11.607
▁ewe	-11.607
▁Ehud	-11.607
ashti	-11.607
▁case	-11.607
▁excel	-11.6071
▁Tophet	-11.6106
▁treacherous	-11.7171
▁throw	-11.7172
▁Chaldea	-11.7181
▁Alpha	-11.7181
ING	-11.7181
▁Answer	-11.7181
▁Rabbi	-11.7181
▁blossom	-11.7181
▁bountiful	-11.7181
▁clap	-11.7181
▁feign	-11.7181
▁gentle	-11.7181
▁guest	-11.7181
▁lap	-11.7181
▁skilful	-11.7181
▁slack	-11.7181
▁travell	-11.7181
efraud	-11.7181
▁137:	-11.7181
▁Araunah	-11.7181
▁Ashkelon	-11.7181
▁Bezaleel	-11.7181
▁Bozrah	-11.7181
▁Caiaphas	-11.7181
▁Cherethites	-11.7181
▁Command	-11.7181
▁Elisabeth	-11.7181
▁Ephrath	-11.7181
▁Felix	-11.7181
▁Hadadezer	-11.7181
▁Jozabad	-11.7181
▁License	-11.7181
▁Makkedah	-11.7181
▁Malchiah	-11.7181
▁Melchisedec	-11.7181
▁Nahash	-11.7181
▁Nahshon	-11.7181
▁Nehemiah	-11.7181
▁Prince	-11.7181
▁Shelomith	-11.7181
▁Suffer	-11.7181
▁Timothy	-11.7181
▁Zebadiah	-11.7181
▁abiding	-11.7181
▁admonish	-11.7181
▁advice	-11.7181
▁affrighted	-11.7181
▁caldron	-11.7181
▁caterpiller	-11.7181
▁confident	-11.7181
▁cruse	-11.7181
▁devout	-11.7181
▁discomfited	-11.7181
▁disguise	-11.7181
▁drought	-11.7181
▁encourage	-11.7181
▁ensign	-11.7181
▁entreated	-11.7181
▁evidence	-11.7181
▁example	-11.7181
▁expired	-11.7181
▁eyelids	-11.7181
▁fervent	-11.7181
▁fever	-11.7181
▁honeycomb	-11.7181
▁hungred	-11.7181
▁impossible	-11.7181
▁mistress	-11.7181
▁mixed	-11.7181
▁naught	-11.7181
▁necessary	-11.7181
▁needlework	-11.7181
▁obeisance	-11.7181
▁plaister	-11.7181
▁poison	-11.7181
▁posterity	-11.7181
▁powder	-11.7181
▁proclamation	-11.7181
J	-12.5965
H	-13.4581
